#version: 0.2
Ġ e
Ġ p
Ġ d
Ġ s
e r
Ġ a
l a
Ġ c
Ã ³
r a
u e
Ġ m
o s
t a
E l
Â ¡
Ġ n
Ã Ń
u n
e n
Ã ±
o n
a r
Ã ¡
ÃŃ a
Ġ un
Ġd i
Ġ t
Ġ El
Ġ "
Ġe s
b a
j o
Ġ l
Ġ L
Ġ la
Ġ Â¡
Ġ g
Ġe l
Ġn i
Ġni Ã±
r o
e l
e s
d o
Ġ Ċ
Ġdi jo
a m
i Ã³
q ue
Ġ y
a s
Ġ f
ta ba
Ġ j
Ġs e
t o
Ġ v
u g
! "
Ġm u
i l
Ġes taba
ĠniÃ± o
a n
o m
Ġj ug
Ġe n
o r
Ġs u
t e
Ġp er
Ġ h
Ġ" Â¡
Ġd e
Ġc on
am Ã¡
Ġ b
Ġ S
r e
ra n
Ġper ro
il y
r i
u er
c h
o t
a l
Ġa l
U n
o l
d e
Ġmu y
Ġ q
Ġm amÃ¡
Ġ que
Ġn o
u s
os o
Ġjug ar
Ġg a
Ġun a
ĠL ily
t i
Ġg ran
Ġp e
Ġ Ã
ī l
d a
el i
i o
Ġe ra
Ġt en
Ġ oso
Ġp el
ĠL a
er o
i n
p ot
ĠÃ īl
t Ã³
que Ã±
Ġpe queÃ±
Ġf eli
Ġp a
Ġl e
Ġ E
uer ÃŃa
m a
g o
Ġ M
r iÃ³
Ġten ÃŃa
o ta
Ġc om
ĠniÃ± a
Ã ©
Ġgran de
Ġq uerÃŃa
" .
Ġpel ota
u i
Ġga to
Ġfeli z
N o
m i
j ar
ĠS pot
ri s
a b
Ġv io
Ġmu ch
ĠEl la
Ġ ro
ĠpequeÃ± o
Ġp Ã¡
ĠpÃ¡ jar
Ġt ris
o c
Ġf ue
Ġtris te
ĠpÃ¡jar o
c i
Ġ T
Ġd ÃŃa
l o
i en
" ,
Ġm i
o d
j a
en s
Ġl la
E s
Ġa mi
Ġs on
Ġc am
Ġlla ma
Ġc as
m p
Ġl os
Ġc or
!" ,
P ero
e o
l e
o la
ab ÃŃa
L a
Ġc a
Ġdi v
Ġ B
c es
Ġcas a
r Ã³
Ġ re
ĠE ra
Ġh a
Ã¡ s
t iÃ³
Ġv e
a x
u an
Ġmuch o
Ġ ta
Ġla s
Ġa b
E ra
Ġdiv er
c a
Ġdiver ti
Â ¿
us o
n a
Un a
Ġes t
Ġ A
i t
iÃ³ n
ĠT om
r en
u Ã©
d iÃ³
er on
!" .
ĠL eo
ĠB en
i la
Ġl o
ue v
c o
Ġs in
Ġ r
t ens
Ġp uso
t es
it tens
Ġp re
Ġpa ra
Ġ i
Ġ ba
Ġp as
L ily
Ġ J
m os
ĠM ax
il la
Ġllama do
Ġsin tiÃ³
Ġp od
Ġs al
Ã³ n
t os
Ġp ar
d es
ue n
Ġ Pero
Ġpa p
Ġs ol
Ġq ui
Ġg us
g u
y u
Ġd el
Ġf uer
Ġdiverti do
an do
Ġpod ÃŃa
o ra
en te
Ġga ti
Ġcor riÃ³
Ġami g
Ġes c
Ġm e
D e
b re
ta s
Ġa yu
. "
ĠS u
c e
Ġjug ue
Ġson riÃ³
u l
s o
Ġ Ã¡
Ġn uev
Ġ ĠĊ
ĠM ittens
Ġ ra
Ġgati to
â Ģ
Ġest Ã¡
Ġami go
d ar
i e
Ġsu s
ĠE s
r b
Ġp or
r es
p ren
Ġen c
Ġc an
Ġp ue
Ġpap Ã¡
z o
Ġpar que
Ġt e
rb ol
ĠÃ¡ rbol
b i
ĠJ uan
es p
Ġcom er
ta r
H ola
Ġm Ã¡s
Ġve z
Ġv er
Ġamig os
Ġro jo
ch e
t ra
g un
i s
Ġp ens
M amÃ¡
l or
j os
ĠA na
Ġper o
t en
Ġ ot
Ġcam iÃ³n
Ġdi o
Ġa pren
ue go
Ġjug ando
Ġb uen
i do
Ġc ar
Ġt ien
Ġpens Ã³
Ġt om
Ã º
Ġl le
S ÃŃ
Ġjug Ã³
c er
Ġnuev o
Ġro ja
Ã± o
Ġh i
ĠL ila
ĠM amÃ¡
i to
t el
Ġpas tel
? "
Ġa s
Ġllama da
a do
r u
Ġ riÃ³
am os
Ã© n
M i
Ġs er
Ġt o
l os
Ġs en
c Ã³
Ġta m
a ba
Ġm an
p ar
Ġpre gun
Ġe ran
Ġapren diÃ³
Ġre p
Ġc ol
S pot
Q ui
Ġa ma
od os
oc o
ĠpequeÃ± a
Ġrep ente
r os
Ġh abÃŃa
ĠS am
Ġa z
v i
Ġs abÃŃa
ĠL os
Ġl i
bi Ã©n
Ġh ue
Ġ No
h ora
d Ã³
Ġpregun tÃ³
u ch
Ġs ue
Ġm a
Ġayu dar
Ġca ja
Ġm al
Ġjugar on
Ġtam biÃ©n
Ġb r
Ġaz ul
Ġj un
Ġdi ce
Ġs o
Ġc o
i ta
ÃŃ n
v e
Ġa r
Ġc os
Ġg ri
Ġ P
Ġbr illa
Ġcam a
Ġenc on
Ġ o
Ġa gu
Ġm o
Ġ C
Ġm on
Ġme jo
u p
r on
Ġes p
om bre
Ġb us
ra ci
Ġhue so
Ġmuch os
ĠS e
Ġtom Ã³
e do
Ġb on
Ġcon ten
Ġ Â¿
ĠEs taba
Ġc er
Ġj ar
Ġv ol
en ÃŃa
" Â¡
Ġmi edo
d os
Ġh ombre
Ġestaba n
Ġmejo r
Ġt u
Ġjar d
raci as
Ġjard ÃŃn
Ġfuer on
T e
ie mp
Ġ" Â¿
c ar
Ġ V
la s
j as
z Ã³
Ġjugue te
Ġgri tÃ³
Q uÃ©
i r
Ġas us
i da
or mi
t on
Ġjun tos
z a
Mi ra
Ġs i
G racias
Qui ero
Ġi r
t rÃ³
Ġm ar
P ue
Ġfeli ces
Ġt oc
Ġ Un
Ġha cer
Ġ H
Ġcom iÃ³
Ġsol o
oc up
s e
Ġb ien
Ġcar ro
Ġa m
âĢ Ŀ
er a
âĢ ľ
Ġab ra
g a
ti r
Ġha ci
Ġn a
Ġjugue tes
n te
L os
Ã īl
e b
de mos
Ġcos as
uÃ© s
o demos
esp uÃ©s
p a
Ġpel u
ton ces
Ġp i
ĠniÃ± os
Ġpre ocup
er m
Ġal go
Ġf lor
j Ã³
Ġgus taba
Ġd ormi
ĠE n
Ġta n
tÃ³ n
ĠÃ ©
Ġhi zo
Ġc al
il lo
V amos
ĠÃ© l
u r
Ġt i
Ġbuen o
Ġp la
Ġesc uch
Ġcom par
an a
Ġc h
c iÃ³n
Ġpreocup es
Ġqui ero
Ġg al
Ġt odos
v o
i eron
in a
Ġhaci a
un a
en do
F ue
Ã¡ p
d as
Ġgran des
Ġal to
T om
, "
Ġfuer te
Ġa n
Ġb eb
S u
L eo
Ġagu a
L e
Ġama ba
Y o
Ġqui er
Ġmo v
ĠL uego
y Ã³
os a
Ġmi rÃ³
un o
ÃŃ o
Ġlle v
Ġco che
ar on
b o
iemp re
el o
u mp
Ġv a
Ġr Ã¡p
Ġv ola
ĠV io
r uno
Ġ os
o y
Ġmuch as
Ġba l
ĠL as
ra s
Ġdormi r
Ġt or
Ġ in
? ",
ĠT enÃŃa
Ġh ab
Ġra tÃ³n
Ġto do
ien te
Ġ âĢľ
ra r
Ġesc on
ue la
Ġp oco
D espuÃ©s
uan do
c ÃŃa
al es
Ġlle g
Ġcon e
om b
Ġencon trÃ³
Ġsal iÃ³
Ġa u
lor Ã³
Ġcompar tir
r ÃŃa
Ġli b
Ġcom ida
ĠrÃ¡p ido
Ġel la
Ġsen tÃ³
Ġcam in
Ġ De
an o
L as
ĠH abÃŃa
Ġj ue
Ġam ar
El la
Ġh e
Ġb ar
Ġtien da
m iÃ³
Ġquier e
Ġs iempre
Ġ Y
M ax
i m
Ġtien e
ĠL e
que s
B en
Ġconten to
b le
Ġ ol
Ġdiv ir
Ġl lorÃ³
Ġot ra
A y
Ġsu a
Ġescuch Ã³
ron to
Ġca ra
Ġde b
Pue do
Ġcol ump
Ġl l
Ġcor ri
Ġten er
Ġsue Ã±o
ĠB runo
Ġp ronto
Ġab riÃ³
Ġr ui
i a
Ġbrilla nte
i co
Ġenc an
Ġgus ta
m e
Ġp uer
Es t
Ġre g
Ġau to
Ġlib ro
Ġt ra
Ġjug aba
Ġesp e
Ġc i
q u
! âĢĿ
Ġ ri
c as
Ġgal le
Ġpue do
Ġcom o
Ġo jos
c u
Ġc ui
Ġabra zÃ³
t ro
t r
Ġcone jo
E n
Ġpor que
Ġpue des
Ġcol or
Ġca yÃ³
Ġtoc ar
Ġbal Ã³n
A hora
Ġbon ito
Ġbeb Ã©
e g
Ġd esp
Ġh erm
Ġsua ve
Q uerÃŃa
Ġpuer ta
Ġe mp
p e
ĠL una
Ġmal o
M ittens
la do
Ġflor es
Ġq uÃ©
Ġd eli
Ġcolump io
Ġp al
ta do
d en
Ġot ro
la n
Ġp an
Ġc oc
Ġrui do
Ġb lo
Ġpe z
Ġlleg Ã³
m as
Ġmov iÃ³
Ġsal tÃ³
ug ar
Ġvol v
" Â¿
Ġg lo
g ui
Ġle jos
Est Ã¡
Ġdeli ci
Ġd os
Ã± e
Ġasus tÃ³
Ġd ul
Ġs omb
Ġi ba
J uan
Ġla d
Ġl in
ĠEn tonces
Es taba
Ġmu Ã±e
E res
b u
Ġl lo
Ġa c
Ġbus cÃ³
Ġdi j
e ces
Ġsue lo
m o
is a
Ġcan s
Ġf a
Ġvola r
on es
ĠEl los
Ġespe ci
Ġblo ques
Ġhe lado
Ġci elo
Ã¡ n
Ġa hora
an te
Ġcan ciÃ³n
A na
v or
Ġllev Ã³
Ġcorri endo
S e
Ġfa vor
Ġan im
Ġman z
i p
e mos
i ca
Ġse gu
a p
Ġconten ta
Ġha y
Ġencan taba
Ġvol Ã³
Ġpelu do
Ġbus car
Ġla miÃ³
en a
Ġa tra
Ã¡ g
Ġp u
a da
Ġcom p
L ila
i c
y a
a u
ba jo
O h
la r
Ġes tar
Ġp ri
d illa
Ġcer ca
Ġh ora
s t
Ġdesp er
Ġc ola
am e
Ġ D
? ".
ren a
Ġc ab
Ġanim ales
Ġencon tra
u vi
ĠE ran
Ġle Ã³n
Ġa f
i tas
Ã± Ã³
Ġ us
Ġc uando
M e
Ġso bre
Ġna da
Ġbar co
Ãº s
Ġro mp
Ġdi bu
Ġli mp
in o
Ġm Ã¡g
Ġp on
l Ã³
t illo
Ġot ros
Ġp l
qu ÃŃ
ĠC oco
Ġi mp
y as
Ġmuch a
Ġemp u
Ġdesper tÃ³
to y
Ġa cer
ĠâĢľ Â¡
Ġsomb r
Ġe x
Ġl ugar
Ġal eg
Ġg or
is to
Ġd a
r ÃŃo
n do
es a
Ġimp or
Ġman o
Ġab uela
Ġmi ra
l es
e ado
ti eron
T en
Ġp odemos
Ġpelu che
Ġjue ga
Ã± a
Ġescon d
o ja
Ġpue de
P or
Ġcal iente
Ġc u
n o
a ra
Ġv i
j ero
Ġsombr ero
ch o
Pue des
Ġba ila
Ġh am
Ġc uen
Ġimpor ta
Ġmar ip
Ġse Ã±
Ġb lan
uer a
P odemos
Ġsol eado
g as
ap Ã¡
Ġque dÃ³
g ar
Ġa rena
ien to
Ġ QuerÃŃa
Ġpu do
z Ã³n
Ġl uego
Ġs a
Ġespeci al
er es
Ġn eces
u ra
e d
i z
Ġp ol
da d
Ġab e
Ġpla ya
A l
Ġcas tillo
Ġama ble
ĠJ ug
st ru
Ġglo bo
oc a
es ta
tr Ã¡s
un ca
S am
u b
Ġamar illo
Ã± os
Ġagu jero
Ġd ar
od as
an as
ĠT odos
Ġf ru
Ġmon o
Ġaf uera
T enÃŃa
b iÃ³
tar on
Ġy a
Ġesp er
ÃŃ e
Ġf rÃŃo
Ġtu vo
Es o
Ġos cu
ĠpÃ¡jar os
Ġdij eron
E ran
Ġper ros
l ÃŃ
Ġel e
t ÃŃa
Ġb os
Ġf i
i ci
Ġtor re
Ġmarip osa
Ġle che
Ġcor re
Ġbos que
Ġdivir tieron
Ġde trÃ¡s
b os
Ġn ub
Ġmi s
Ġayu da
Ġpue den
Ġayu dÃ³
n tes
ue l
Ġg ol
s a
Ġv en
Ġd ur
es o
Ġve ces
Ġreg al
Ġver de
Ãº n
Ġen f
Ġcomp rar
Ġmi el
Ġt odas
Ġele f
Ġgus ano
Ġjugaba n
Ġqui so
Ġacer cÃ³
Ġdivir tiÃ³
Ġs or
Ġh uev
v an
Ġcoc ina
Ġp ie
iemp o
uvi a
Ġgalle tas
Ġt iempo
Ġpelota s
Ġv es
L uego
Ġp ro
Ġar dilla
Ġcab e
te Ã³
Ġsi gui
Ġb oca
Ġson ido
la ro
Ġescon diÃ³
r el
En tonces
Ġn unca
Ġcor rÃŃa
ch a
u c
Ġla r
Ġll uvia
Ġest rel
ĠL isa
Ã³n de
Ġn ar
en tes
gu iÃ³
c an
Ġle van
Ġl u
as ta
Ġjue g
or ro
Ġgalle ta
Ġcer rÃ³
Ġal lÃŃ
Ġcabe za
Ġc re
Ġimporta nte
ĠA hora
Ġa quÃŃ
Ġempu jÃ³
ri ba
Ġabra zo
Ġh er
Ġal ta
ÃŃa n
u au
Ġdul ce
Ġreg res
Ġdelici oso
il o
rÃ³ n
Ġazul es
Ġbrilla ntes
Ġasus tado
Ġbon itas
Ġen oja
Ġnar iz
Ġromp iÃ³
z ar
Ġta r
Ġ or
Ġbrilla ba
Ġcans ado
Ġto da
Ġdiverti da
Ġgol pe
Ġcolor es
Ġpl u
Ġgus tÃ³
Ġencontra r
Ġa h
ue s
Ġlin do
ra ba
Ġvolv er
Ġm os
Ġham bre
Ġha cÃŃa
ur ru
Ġac urru
Ġsen tÃŃa
m Ã³
Ġol vi
Ġf res
C laro
Ġsi guiÃ³
Ġd es
Ġro jas
Ġe res
Ten go
Ġex tra
Ġtoc Ã³
Ġar riba
Ġcon ti
Ġves ti
mi go
Ġb ola
Ã± ana
Ġamar illa
Ġmanz ana
Ġbon ita
Ġes o
Ġd ue
en tro
S on
e ta
Ġab ri
Ġsigui ente
Ġpa to
Es toy
Ġcon migo
Ġr esp
Ġa v
ĠestÃ¡ n
Ġpa yas
bi r
Ġh o
e c
Ġs ab
Ġt ren
Ġnuev a
Ġpa ti
ch es
Ġah ÃŃ
Ġro ca
Ġmon stru
Ġcan tÃ³
Ġpla n
H abÃŃa
Ġar co
Ġcui da
ÃŃ ris
Ġarco ÃŃris
Ġde jÃ³
G uau
Ġ z
Ġpas a
ĠmuÃ±e ca
Ġconti go
Ġa las
Ġd espuÃ©s
Ġsu biÃ³
V oy
Ġvolv iÃ³
Ġabe ja
Ġra ro
Ġesc uela
m Ã¡s
Ġelef ante
T Ãº
Ġro jos
Ġt ro
d on
Ġ za
Ġde bajo
v ÃŃa
Ġes e
Ġb ot
Ġcuen ta
Ġacurru cÃ³
Ġza pa
Ġpati o
Ġde mÃ¡s
Ġtor ta
r er
Ġp es
Ġ DespuÃ©s
Ġh asta
d ra
Ġmar rÃ³n
uc y
ue na
a y
q ui
Ġin c
ĠmÃ¡g ico
Ġlad rÃ³
Ġdul ces
Ġsegu ÃŃa
eli g
Ġver des
ĠC or
d ido
Ġma Ã±ana
i er
C om
Ġvola ndo
Ġti rÃ³
Ġ N
to r
Ġfue go
Ġm esa
Ġv as
Ġpal o
Ġb uena
p Ã³
Ġca ch
Ġpal om
ĠpequeÃ± os
re g
d er
Ġs illa
pren diÃ³
Es te
Ġsu bir
Ġma es
Ġhi ci
Ġvesti do
diÃ³ s
Ġcor rer
ĠD i
Ġo ve
Ġfi esta
Ã³ mo
er os
Qui eres
Ġcara m
g iÃ³
Ġv ieron
Ġcui dar
Ġv ino
en to
Ġsal ir
Ġra zÃ³n
u m
Ġbaila r
Ġtien es
Ġda Ã±o
n g
p ue
Ġri eron
t u
Ġmanz anas
Ġdur miÃ³
Ġos ito
Ġp in
Ġha ce
Ġve ÃŃa
Ġa ra
Ġdi s
Ġho jas
Ġar reg
Ġher mos
in al
Ġi de
l uso
Ġno che
Ġma d
Ġten go
Ġni e
ien do
Ġregal o
ch as
ran do
Ġamig a
ĠquerÃŃa n
ĠP odemos
Ġal can
Ġper s
O so
Ġcer do
Ġtom a
ĠtenÃŃa n
Ġre al
A diÃ³s
Ġt us
P apÃ¡
Ġlu z
Ġgal l
Ġos os
Ġhab lar
ta da
Ġlimp i
ra g
!âĢĿ ,
Ġmonstru o
Ġun o
Ġd rag
Ġllev ar
Ġl es
Ġpla to
i g
ĠS ol
Ġatra par
Ġpayas o
Ġll en
Ġcom en
i Ã±o
ol Ã³
il los
Ġn os
Ġen trÃ³
Ġpa teÃ³
ĠÃ¡rbol es
Ġnub e
Ġcamin Ã³
Ġel los
Ġlevan tÃ³
ba l
Ġolvi dÃ³
Ġalcan zar
Ġest Ã¡s
D ame
en i
âĢľ Â¡
Ġtar de
Ġson r
Ġde cÃŃa
Ġca bal
Ġro to
V io
Ġjug o
Ġc uer
Ġherm an
ĠdÃŃa s
ĠL ucy
Ġla n
Ġpe da
Ġra to
Ġf an
Ġre don
Ġide a
Ġp elig
o f
!âĢĿ .
Ġtris tes
Ġaleg rÃ³
Ġsonr ÃŃe
Ġhab ita
Ġcom ieron
L o
Ġten gas
Ġre ÃŃa
Ġplu mas
Ġus ar
Ġver dad
it os
os as
Ġblan co
er se
B uen
Ġd entro
Ġh ar
Ġven ta
S oy
D Ã³nde
m ente
Ġpa ta
c io
i zo
C uando
Ġle er
Ġd ol
i das
Es a
Ġhabita ciÃ³n
Ġen tonces
Y a
J ug
Ġv uel
Ġenf erm
er ra
isto ri
Ġdeb es
Ġh istori
Ġman os
Ġresp on
e te
Ġg an
Ġdi entes
Ġv ie
Ġpers on
Ġjueg an
Ġba n
Ġhuev o
ĠA l
Ġb i
Ġba jÃ³
Ġb ru
Ġoscu ro
Ġd u
Ġv iento
Ġy o
Ãºs ica
Ġauto b
Ġser p
âĢĿ .
v er
ĠP apÃ¡
Ġ R
Ġso Ã±Ã³
Ġ zo
Ġzapa tos
Ġhici eron
Ġm Ãºsica
Ġca er
Ġsen tir
Ġque so
ÃŃ r
Ġdrag Ã³n
Ġdue Ã±o
ĠpodÃŃa n
Es ta
c os
g re
Ġcar iÃ±o
Ġpri m
Ġs iento
Ġbal l
Ġdiverti dos
Ġde mas
Ġpa la
er n
Ġs ÃŃ
Ġgolpe Ã³
Ġpas Ã³
Ġb ol
ra z
T u
Ġpas to
Ġesper Ã³
Ġlad raba
Ġen tra
Ġt el
Ġmon tÃ³n
Ġav iÃ³n
Ġglo bos
Ġg eni
do r
Ġpol lo
Ġdi f
Ġla v
d ie
d u
Ġestrel la
Ġv amos
Ġa car
Ġ F
Ġfuer a
Ġautob Ãºs
Ġdibu jo
Ġrespon diÃ³
Ġara Ã±a
Ġba s
Ġlo bo
Ġc ump
Ġnie ve
ĠP ue
o z
Ġcam p
Ġso pa
ĠpequeÃ± as
Ġllo rar
Ġal gun
ien tes
g Ã³
in tiÃ³
Ġdi n
Ġtom ar
Ġesc al
Ġgor do
Ġcach orro
Ġayudar te
tu vo
Es e
Ġcorri eron
un do
Ġenferm o
p ero
ĠseÃ± ora
Ġcump le
Ġtra jo
Ġregres Ã³
in Ã³
Ġf rÃŃa
Ġen ten
Ġescuch ar
Ġv oz
Ġna dar
Ġva ca
Ġcuida do
Ġinc luso
Ġplan ta
a Ã±os
j er
Ġvas o
Ġextra Ã±o
Ġcan taba
Ġro dÃ³
T odos
Ġdelici osa
Ġcumple aÃ±os
B runo
i ado
Ãº d
Ġa p
ÃŃ cu
Ġla go
Ġdeb ÃŃa
Ġde ci
Ġfan tas
Ġneces ita
Ġpi ra
Ġr ÃŃe
Ġcuer da
v a
Ġme tiÃ³
Ġpi z
Ġm or
Ġ G
Ġpon er
Ġherm ano
ca do
Ġr ue
Ġv oy
Ġp us
ĠS us
Ġpa jar
Ġb eso
Ġcan tar
Ġf am
Ġco ches
Ġmo ja
Ġpiz za
Ġcomen zÃ³
d ieron
ar ÃŃa
ĠT ed
Ġdij e
Ġa gar
al la
Ġfru tas
ĠDi jo
Ġdeb e
Ġenoja do
ri to
f a
Ġbeb iÃ³
ota s
g ico
Ġdis f
i on
Ġcamin o
Ġventa na
Ġb ici
ĠT e
Ġcaram elo
a vi
Ġsegu ro
Ġfres as
Ġpie dra
Ġcos a
Ġl una
Ġper f
Ġ Yo
Ġcon tÃ³
Ġg ig
Ġb es
Ġas intiÃ³
Ġch oc
i taba
ta l
ci ones
Ġbuen os
Ġgeni al
b or
od ÃŃa
Ġpap el
ĠS on
ĠC uando
Ġtam bor
ri eron
Ġg u
c ol
Ġa Ãºn
Ġmov ÃŃa
Ġe m
Ġpri n
ĠM i
Ġcabal lo
Ġpajar ito
Ġc Ã³mo
Ġlar ga
Ġra ma
c ciÃ³n
Ġsor prendiÃ³
ien es
Ġdemas iado
ba n
c il
Ġlla mÃ³
ĠS an
Ġs ola
Ġgustaba n
Ġdin ero
Ay Ãºd
Ġbuen as
Ġgall ina
i dos
t er
v es
Ġcon cha
Ġnub es
aba n
c to
Ġve c
Ġpa vo
Ġcal le
Ġf ri
Ġle cciÃ³n
Ġta za
Ġfavor ito
Ġt erm
Ġsu ci
Ġh ilo
or m
Ġd oc
A yu
am a
ola te
Ġserp iente
Ġg ris
olÃ³ gico
Ġzo olÃ³gico
ma g
Ġm ÃŃo
Ġcamin ar
an tes
ti n
Ġhi er
Ġhier ba
Ġredon da
Ġen se
Ġhuev os
g er
Ġpeda zo
Ġchoc olate
Ġllen o
Ġherm ana
un tos
Ġpe ces
Ġf al
Ġpon e
Ġestrel las
Ġneces itaba
Ġatra pÃ³
Ġz orro
vi eron
Ġpas ar
ĠmÃ¡g ica
Ġnuev as
Ġm ÃŃ
Ġem oc
Ġnuev os
Ġdoc tor
Ġj uego
Ġsa cÃ³
Ġso Ã±
Ġayudar Ã©
Ġemoc ion
s te
ĠmuÃ±e co
Ġde tuvo
ĠmuÃ±e cas
Ġch is
Ġba Ã±o
Ġro dilla
Ġc uch
Ġni do
Ġdiverti das
W o
ed ro
Ġbot el
Ġhaci endo
Ġir se
M Ã¡s
Ġc in
Ġabri r
ra da
ĠseÃ± or
Ġam o
n os
d ÃŃa
pue do
V en
Ġ Oso
Ġa bajo
s os
de dor
r oso
Ġcal or
ĠM ia
Ġll ena
Ġemp e
Ġso p
b les
Ġcon f
Ġri co
ch i
Ġd esa
Ġperson as
j e
Ġmaes tra
Ġti erra
Ġli m
Ġi mag
Ġlimpi ar
Ġv al
Ġba jar
Ġt Ãº
Ġna ran
Ġma ul
in as
Ġpap as
Ġ ran
Ġcom e
Ġes ta
Ġt on
Ġm undo
Ġin ten
Ġhistori a
m ar
ĠJug aron
d i
Ġp is
Ġespeci ales
Ġr osa
Ġfru ta
Ġlan zÃ³
c en
el os
Ġhermos a
re dedor
Ġal rededor
Ã¡ l
Ġto ques
uev e
bo g
Ġto bog
Ġsal chi
Ġball ena
illa s
ĠJug Ã³
y o
Ġt ras
Ġf inal
Ġc ora
Ġbus ca
Ġcara col
gu l
v en
Ġsue Ã±os
Ġor gul
ng el
Ġpel ÃŃcu
Ġt ÃŃo
t ura
Ġsab e
Ġgran ja
ĠÃ¡ ngel
A quÃŃ
L una
Ġove ja
Ġprin ces
Ġmad re
Ġso y
Ġab ue
ug a
AyÃºd ame
Ġlin da
Ġvuel ta
Ġdormi do
Ġcam isa
Estaba n
c iÃ³
d y
Ġran a
Ġarreg lar
Ġmu jer
Ġ u
Ġfam il
ĠC om
Ġg ru
ic iÃ³
Ġacar iciÃ³
Ġpus ieron
b ri
ci to
Ġmal os
Ġa pa
Ġprinces a
Ġllama ba
Ġre co
Ġabe jas
Ġhab la
Ġso f
Ġhe cho
Ġsof Ã¡
Ġr ÃŃo
Ġsal tar
Ġtobog Ã¡n
Ġb u
ĠL o
Ġac os
Ġhab lÃ³
m en
d ando
Ġ Una
Ġdur mi
p res
eso ro
Ġga tos
Ġcan gre
ĠÃ º
Ten emos
Ġper rito
Ġa ve
Ġpol l
Ġme d
Ã¡ ta
Ġt esoro
Ġes te
v is
Ġq uer
Ġp o
an os
Ġcan ciones
Ġb o
Ġh oja
Ġescal era
Ġ Fue
Ġle yÃ³
ien e
Ġabri go
Ã± as
Ġpel e
Ġagar rÃ³
Ġhue sos
Ġse m
Ġfantas ma
Ġperf ec
Ġpel o
ĠH izo
uev a
C oco
ris a
Ġllo ver
ĠPue des
ĠCor riÃ³
ue mos
Ġayudar me
Ġempe zÃ³
Ġl isto
Ġro ta
Ġlar go
Ġch ico
Ġh ormi
Ġtor t
Ġmi rando
Ġtoda vÃŃa
Ġfuer tes
en e
Ġcora zÃ³n
ti co
Ġi do
Ġg ente
Ġha da
Ġest uvi
Ġbeb er
ĠT en
Ġen o
C or
w i
Ġbru ja
Ġmaul lÃ³
ie go
d wi
Ġpalom a
den tro
Ġs iente
Ġn ues
ui s
Ġoscu ra
Ġb omb
H ay
P er
Ġes toy
Ġna die
ĠB us
Ġper dido
Ġtel e
Ġove jas
N eces
pres a
i car
Ã¡n dwi
Ġc ueva
rb u
Ġv is
Ġcan ta
Ġman ta
ar los
Ġpl Ã¡ta
Ġs Ã¡ndwi
Ġtort uga
Ġf e
Ġcangre jo
Ġasus tada
Ġre y
Ġc Ã¡l
Ġsomb ra
ti a
Ġco giÃ³
Jug uemos
Ġtro mp
Ġus Ã³
Ġsen tado
od r
Ġpar e
Ġde jar
Ġentra r
Ġbu rbu
Ġb ur
Ġa dentro
Ġpa te
Ġt re
Ġmos ca
Ġgig ante
âĢĿ ,
Ġve las
Ġvi vÃŃa
Ġl is
Ġbes Ã³
T al
Ġv isto
Ġpan tal
. .
Ġregal os
Ġdeci r
Ġpar tes
v as
Ġdibu jos
Ġp os
T ienes
Ġjun tas
i as
Ġsu cio
am i
Ġnaran ja
ĠbebÃ© s
Ġna dÃ³
Ġbas ura
Ġpala b
ier ta
f Ã©
Ġrue das
Ġgati ta
l ie
Ġcab ra
Ġol ÃŃa
h ar
c on
har lie
Ġbur ro
Ġm as
in ar
Ġs ien
Ġca fÃ©
Ġba il
icar do
Ġta b
ĠP edro
Ġlimp io
Ġamig as
Ġn ue
Ġgal lo
D os
ch os
ab lo
Ġno ches
Ġacos tÃ³
Est Ã¡s
Ġinten tÃ³
Ġcar ros
tr Ã©
m ma
Ġpira ta
p or
v io
ĠS ara
Ġsa car
al Ã³
ĠsÃ¡ndwi ch
Ġpelig roso
ug o
Ġdif er
Ġcon s
Ġsal ta
Ġson risa
Ġalgun as
avi d
Ġdurmi endo
El los
Ġma la
Ġba yas
g os
Ġau tos
il l
Ġjun to
Ġpelu da
Ġol fa
Ġcamin aba
Ġplu ma
Ġbar ri
tr ui
b ot
Ġt ru
Com par
Ġot ras
Ġval iente
P odÃŃa
ĠTed dy
Ġc ena
n ita
Ġor e
Ġma las
Ġmira ba
Ġencontra ron
Ġbot Ã³n
Ġenten dÃŃa
Ġch ic
Ġcomer lo
Ġch ica
tia go
Ġenoja da
Ġbomb eros
Ġpas eo
Ġesper ar
Ġdisf raz
Ġcons trui
Ġsal taba
tra s
Ġgu ar
Ġcuen to
a cÃŃa
Ġpa tas
Ġp r
Ġlleg ar
ern ando
ĠY a
Ġba jo
Ġdue le
Ġbi cho
Ġr on
tar se
Ġmon e
Ġcon tar
Mi au
of ÃŃa
Ġpi so
la da
Ġ ola
Ġcu bo
Ġre c
Ġdol ÃŃa
le ta
ĠTenÃŃa n
Ġbo te
Ġconstrui r
Ġolfa teÃ³
Ġtoma te
Ġpa tos
k e
Ġfamil ia
Ġcin ta
h or
Ġespe jo
Ġmon ta
Ġpod rÃŃa
Ġcom eta
Ġcone jos
ana hor
Ġlleg aron
Ġcoc odr
ĠniÃ± as
Ġto alla
Ġz anahor
car on
ĠpelÃŃcu la
ÃŃn ci
S er
Ġprim ero
ĠM arÃŃa
Ġestuvi era
Ġpr ÃŃnci
Ġron ron
Ġra ton
Ġmon os
Ġca pa
Ġapren der
Ġatra p
ĠprÃŃnci pe
Ġburbu jas
M uch
Ã© ro
Ġam or
es Ãºs
Ġes to
Ġamarilla s
Ġest u
Ġsop lÃ³
Ġcam is
pue des
Ġman chas
Ġronron e
m bre
Ġtra ba
Ġmis mo
Ġn eg
Ġblan cas
Ġpoll ito
Ġsua ves
Ġar ro
Ġen ano
Ġgusta n
ri que
Ġhar Ã¡
Ġmoja do
Ġbici c
Ġhab er
Ġpelig ros
Ġan tes
L isa
ĠÃ¡ gui
ĠJ untos
Ġcocodr ilo
Ġni ng
Ġning Ãºn
Ġh or
Ġpa d
Ġcomp rÃ³
Ġto ro
c re
i te
ot os
Ġi g
Ġlib ros
Ġbol s
Ġque dar
ĠS o
Ġpi diÃ³
ra ron
ĠAl gun
us to
q uÃ©
Ġsor presa
Ġbuscar on
S al
S ol
Ġol la
Ġen t
Ġv ÃŃ
Ġo ro
Ġig les
Ġch ar
ke y
Ġn ene
Ġba Ã±
Ġm om
C Ã³mo
Ġjueg os
Ġva cas
Ġesc ri
Ġri o
ĠplÃ¡ta no
Ġan da
Ġcu a
Ġbicic leta
Ġbon itos
ÃŃ z
ÃŃa s
ĠÃ¡gui la
Ġencon trÃ©
ÃŃ s
Ġdibu jar
b ora
Ġpes cado
Ġblan ca
Ġmor diÃ³
Ġpar ed
Ġescond idas
d ida
Ġmom ento
Ġgor ila
Ġa t
Ġgru Ã±Ã³
Ġco h
ran te
Ġescond erse
Ġf otos
Ġquier es
Ġbotel la
ĠvÃŃ bora
Ġin t
Ġabue lo
Ġma ÃŃz
du ras
Ġf ui
Ġbarri ga
Ġtra bajo
Ġcans ada
Ġdu ro
d an
Ġeno jÃ³
Ġfres a
Ġore jas
i cas
i os
Ġpalab ras
Ġse cre
b e
Ġense Ã±Ã³
inal mente
Ġm ueve
a to
Ġcoh ete
ĠS abÃŃa
z aron
Ġqui e
Ġcans Ã³
Ġbola s
Buen as
Ġpi er
Ġu vas
Ġra ra
Ġde do
Ġmi rar
Ġt res
ĠB a
S iempre
Ġfavor ita
Ġcamin aron
Ġgus anos
I n
Ġasus ta
ĠSol o
Ġre ÃŃr
Ġver duras
Ãº m
Ġmon a
Ġg e
p er
Ġpregun ta
ĠP ip
Ġd Ã³nde
ĠL ola
Ġpro ble
Ġrui dos
Ġra s
Ġvie jo
ĠS al
Ġd oy
Ġmaes tro
Ġterm inÃ³
Ġba lan
Ġesp a
Ġg ui
Ġh Ã©ro
Ġar mar
ĠM e
Ġt ran
Ġbalan ce
Ġarmar io
Ġlu ces
Ġconf un
Ġhermos as
B a
Ġraton es
Ġf o
Ġbol sa
Compar tir
ĠsoÃ± aba
z os
Ġmejo res
Ġha cen
Ġllo rando
Ġton to
Ġcaram elos
f ici
Ġsal u
a z
Ġc esta
ot ros
Ġlimp ia
i re
Ġmon tar
gui en
ab le
Ġchar co
ĠEstaba n
Ġhombre cito
Ġl Ã¡
Ġj ab
Ġes a
gu as
Ġcer rada
Ġsien ta
ĠcÃ¡l ido
Ġn Ãºm
Ġc oco
ĠA m
Ġencan ta
Ġfri jo
ca ra
Ġtromp eta
Ġpi es
Ġb otas
Ġse d
Ġmos trÃ³
Ġh u
Ãº car
ÃŃ cil
i mos
Ġdif ÃŃcil
. âĢĿ
b Ã³
ĠlÃ¡ mp
c Ã¡n
Ġronrone Ã³
Ġa ire
d era
Ġaz Ãºcar
Ġpi co
Ġjab Ã³n
d Ã³n
Ġelef antes
ĠEs ta
Ġcos qu
Ġsalchi cha
d ÃŃ
Ġmad era
Ġla do
ĠlÃ¡mp ara
Ġs Ã©
ĠSo Ã±Ã³
Ġd on
Ġtar ta
ĠS ue
Ġsal vo
ĠCor rieron
ĠL uis
i era
Ġban dera
Ġmov er
Ġlis ta
or ros
Ġpin tura
Ġsecre to
Ġvol cÃ¡n
Ġpe gÃ³
Ġg raci
Ġin se
Ġsi g
Ġperfec to
Ġdesa par
Ġt ÃŃ
Ġbar ro
v os
Ġcon stru
Ġsi mp
Ġr es
Ġhormi gas
Ġca jas
o h
Ġenf er
Ġpalom as
os os
om a
Ġigles ia
Ġcre cer
d ir
Ġpol los
Ã¡ cil
ĠV amos
n e
ĠT im
Ġf Ã¡cil
Ġbail Ã³
d ras
Ġl Ã¡p
Ġplan tas
f re
ron es
er as
ĠL lorÃ³
Ġregres o
ĠM ic
ĠMic key
ĠS ofÃŃa
Ġama bles
Ġm ÃŃa
Ġa la
Ġs an
Ġpie dras
t Ã¡s
S an
Ġtoma tes
Ġal guien
Ġgui tar
Ġcach orros
Ġayu do
Ġsuci a
Ġcom ÃŃa
Ġzapa to
Ġcam bi
Ġla zo
Ġatrap ado
om os
Ġlla ve
Ġquier en
Ġd orm
ra do
Ġh ones
Ġav es
S us
on o
ĠbaÃ± era
Ġpier na
Ġmo to
Ġqui tÃ³
Ġra d
Ġ Quiero
Ġpantal ones
Ġc ru
raz os
a dos
Ġdi ente
Ġb razos
Ġguitar ra
Ġdi am
Ġca ÃŃ
Ġcas as
Ġlas ti
on ada
Ġmucha cho
ĠC arlos
Ġa g
Ġcon du
Ġlad ra
Ġa d
J ugar
Ġsi rena
Ġcamp ana
Ġch u
Ġque da
De b
ĠJ esÃºs
Ġo yÃ³
Ġfo to
Ġgor ro
uel ita
ĠP ablo
Ġas ÃŃ
Ġcone j
Ġpre ci
Ġquie to
S i
Ġla na
Ġb e
Ġpara guas
Ġmov erse
Ġro cas
Ġse as
Ġdu rante
z as
D entro
p o
Wo of
Ġtocar lo
j Ã³n
Ġgall inas
que ta
Ġalgun os
Ġempu jar
Ġvol vieron
Ġc eb
Ġp res
Ġten emos
Ġh oy
f ono
Ġcom iendo
H izo
i ones
ch Ã³
Ġdibu jÃ³
ĠR icardo
b ur
Ġha ces
Ġm en
Ġapren dieron
Ġfrijo les
re ÃŃ
Ġc en
Ġre ales
ro om
ĠE mma
Ġinse cto
ue ga
bur g
ĠH ugo
l oso
Ġorgul loso
Ġlav ar
ĠSan tiago
Ġco fre
ĠC harlie
Ġconej ito
elo j
v ol
Ġcam iones
Ġch a
Ġtel Ã©
Ġr eloj
N os
o do
Ġli bre
Ġpas ta
Ġman cha
Ġg racias
Ġcuch ara
Ġbaila ron
Ġg oma
Ġceb ol
Ġro pa
* *
u y
ĠTom Ã³
Ġri ca
Ġcon chas
Ġdon de
Ġham burg
Ġp ito
Ġcer dos
Ġsen taron
Ġnos otros
Ġpayas os
Ġtien en
Ġv uela
ĠtelÃ© fono
Ġp ien
Ġpe dir
Ġab uelita
Ġinc reÃŃ
Ġdes can
ĠH acÃŃa
Ġfi de
Ġesp on
Ġmar gar
Ġtab la
Ġj usto
Sol o
Ġcha queta
i ra
Ġaleg rÃŃa
Ġenfer ma
Ġsal ieron
Ġdar Ã©
Ġcar ne
Ġser ÃŃa
m an
a die
V i
Ġgri ta
ĠG ato
ec iÃ³
Ġsor pren
Ġd Ã©
Ã© s
Ġs Ã¡
ĠTen go
Ġdiam ante
Ġd uer
Ġen sa
ĠD avid
Ġsal taron
Ġtra vi
Ġhabla ba
Ġherman ito
Ġch up
v amos
V ete
Ġsegu ra
Ġso bri
Ġfide os
r uen
t era
ĠmÃ¡s cara
Ġre ÃŃan
Ġre f
Ġpira tas
Ġensa lada
ĠLa ura
Ġcas ita
p t
cÃ³ pt
eli cÃ³pt
Ġlim onada
Wo w
v iÃ³
Ġcom as
Ġsal sa
Ġcol lar
d r
Ġpien sa
ĠJ ugar
Ġgan ar
Ġreco giÃ³
ĠD iego
Ġtele vis
la dos
Ġtoc ino
i rÃ³
Ġbe bi
y eron
Ġsa la
is te
uer on
Ġh on
Ġenc uen
Ġab ur
Ġfri tas
ĠAm bos
Ġpre m
da do
Ġllo ra
Ġh elicÃ³pt
Ġcar tas
g ado
Ġper diÃ³
ĠlÃ¡p iz
Ġb ra
Ġpas tor
Ġllo raba
Ayu dar
ci ta
Ġc el
Ġayuda do
Ġvec ina
Ġpastel es
Ġin vi
Ġn ombre
ĠâĢľ Â¿
Ġv an
Ġf eo
vi r
Ġhistori as
Ġdar le
i ble
Ġa ten
Ġn ena
ĠC am
ĠA nita
Ġte la
Ġdorm ÃŃa
ar e
Ġarro z
? âĢĿ
Ġg ra
Ġcal ce
Ġmone das
Ġcosqu illas
Ġproble ma
Ġvie ja
Ġamar illos
Ġi gu
Ġcebol la
erm an
Ġc ir
Ġmonta Ã±a
Ġamig able
ĠP up
Ġorgul los
Ġcir co
er e
Ġcui dÃ³
Ġmar tillo
ĠF ernando
ĠEs t
F eli
q uer
Ġmonstru os
g an
ĠEn rique
Ġca da
p era
s ar
c ando
Ġextra Ã±a
Ġvec ino
Ġtro f
Ġpeda zos
b il
Ġpri ma
t il
Ġpe ga
Tom a
Ġ oc
Ġgor ra
Ġca jÃ³n
Ġex c
Ġr osas
Ġat Ãºn
Ġva cÃŃa
Ġcamp o
Ġenten diÃ³
ĠhÃ©ro e
Ġn orm
qu ilo
ĠJug aba
Ġab re
Ġc las
Ġrue da
Ġpla tos
Ġdifer ente
ch ila
Ġda dos
c luso
Ġmo chila
Ġam Ã³
Ġt ruen
Ġperson a
Ġatra pa
Ġrec or
Ġmargar ita
Ġper ra
Ġo b
ĠV e
Ġti rar
Ġ O
Ġpes car
t man
Ġlimp iÃ³
u ri
b ar
Ġbar cos
ar z
Ġtrof eo
Ġla tas
vi era
Ġtru co
Ġcu ar
ĠS iempre
la ba
Ġb ota
Ġpalom itas
Ġmira ron
ĠN avi
Ġherm oso
Ġabur ri
Ġfru tos
Ġpro f
Ġhe lados
Ġlim Ã³n
un que
Ġgati tos
Ġcamin ando
ĠdÃ© bil
Ġdeb emos
Ġl uch
al e
Ġdesa y
Neces ito
ĠSan dra
Ġgris es
Ġcon oc
Ġcabal los
Ġti bu
Ġban co
Ġca e
Ġcu ri
ens Ã³
ĠH ay
Ġestar ÃŃa
Ġl ento
Ġalcanzar la
Ġas quer
en as
Ġayudar lo
Ġb el
Ġenc en
Ġmos cas
in aron
J uega
ĠAlgun os
ĠniÃ± ita
Ġpre pa
Ġre bot
am Ã³n
Ġrebot Ã³
Ġun as
Ġnecesita n
Ġm es
arz Ã¡n
Ġg otas
m m
L l
l i
Ġb ro
Ġlle ga
Ġbi chos
Ġllev aba
Ġaleg re
Ġpan que
Ġchic le
tin es
ĠMi rÃ³
Es pera
Ġpin tar
Ġzanahor ias
C ui
Ġcor tÃ³
Ġson rÃŃo
Ġsalchi chas
ĠA prendiÃ³
Ġbotel las
Ġcor ba
i ar
Ġte m
Ġacar ici
ĠBus cÃ³
Ġv iene
ter na
Ġcalce tines
Ġllev a
Ġlin terna
Ġas omb
Ġt er
Ġj amÃ³n
Ġma pa
ab ul
ora do
Ġpis c
ĠF inalmente
Ġmed alla
Ġpisc ina
ti vo
Ġ ocup
Ġan illos
Ġpa vos
Ġson rieron
us a
Ġci ma
P on
Ġmos tra
M is
Ġdis tin
Ġj au
c om
Ġorgullos a
Ġball enas
Ġfui mos
Ġsal e
s ÃŃ
Ġrad io
gui r
Ġal tos
Ġpro te
Ġher ido
Ġimag ina
Ġconten tos
Ġcal ientes
Ġel las
Ġpad res
i f
Ġayu dan
ĠP odÃŃa
Ġvolver ÃŃa
Ġpas e
an g
Ġbus cando
.. .
ĠNavi dad
Ġgri taron
Ġcuar to
B ang
Ġes tÃ³
er an
Ġcorba ta
Ġab ierta
Ġpata tas
Ġra tas
Ġba ra
Ġmas c
qu illa
Ġtor men
ma go
Ġdi eron
ti ca
Ġde ja
ĠestÃ³ mago
Ġcamis eta
Ġa tas
Ġsem illa
Ġdiv ier
B o
Ġpi j
Ġtravi eso
v Ã³
Ġcen ar
Ġde dos
er te
am biÃ©n
ĠseÃ± alÃ³
Ġpes ada
Ġpi c
Ġcorre cto
i ma
Ġcor tar
ĠT Ãº
Ġf or
Ġtruen o
ri tÃ³
Ġman te
Ġmante quilla
Ġguar dar
Ġj ira
v ado
n if
Ġha das
Ġf abul
S abÃŃa
Ġdol or
Ġjau la
l ti
Ġcoc in
L es
Ġma go
Ġho gar
Ġpue b
Ġescond ite
Ġherman ita
ĠÃº lti
ĠUn o
Ġhab lan
Ġbols illo
Ġal tas
Ġlo do
Ġp ino
Ġta pa
En con
on a
Ġpal os
Ġcoc a
Ġhi jo
Ġmoja da
Ġvis ita
ĠElla s
Ġromp er
Ġhi elo
Ġbalance Ã³
Ġe qui
ĠT iene
Ġco ger
Ġapa gÃ³
Ġal e
Ġham bri
Ġense Ã±
ues ta
Feli z
Ġgan Ã³
are cÃŃa
Ġdelici osas
c uch
Ġcre ma
Ġs ill
Ġarreglar lo
Ġde por
re mos
Ġhi jos
Ġr ug
Ġba ta
Ġgraci oso
Ġlav Ã³
Ġbar ba
Ġba ja
Ġdiverti r
Ġtoc a
P el
Ġcar tera
Ġcua der
Ġj alÃ³
Ġsill Ã³n
Ġpar te
ida d
j ita
Ġfantas mas
Ġgig antes
Ġaf ila
Ġg ar
L ucy
Ġreco ger
Ġcuader no
ĠS i
Ġvas os
Ġten is
Ġestar Ã¡
t ros
Ġsem illas
ern as
g ia
Ġc ÃŃr
Ġlo bos
Ġfe a
Ã© c
Ġblo que
p erman
Ġpes ado
ĠincreÃŃ ble
Ġconfun dido
Ġv enÃŃa
Ġfue gos
s ta
Es to
Ġbuscar la
Ġpare cÃŃa
Ġpi ano
Ġescon de
Qui ere
ĠTen emos
Ġgan cho
Ġcuen tos
Ġprim er
ĠEs te
en ci
il lÃ³
ĠL le
ĠSu perman
ĠEst Ã¡
Ġma ra
er ÃŃa
Ġt os
Ġprem io
ita l
Ġencan tado
Ġpanque ques
Ġes ca
g res
Ġnorm al
ĠP ensÃ³
In cluso
ec en
ĠN adie
Ġge m
Ġti gres
Ġmara v
Ġpod er
Ġdescan sar
Ayu da
Ġver lo
Sal tÃ³
ĠBa tman
Ġsu fici
er vi
Ġn ervi
Ġdormi da
Ġcomer la
ĠcorrÃŃa n
Ġaleg ra
Ġcan taron
ien tras
ĠMi mi
Ġta zÃ³n
Ġhi jas
Ġneg ra
ĠJug aban
Ġma gia
Ġlin das
ĠN unca
M arÃŃa
ĠV olÃ³
Ġm ol
ma do
ues as
Ġemocion ado
Ġad ul
Ġca ca
Ġl oco
Ġs ientes
er no
Ġol or
Much os
Ġg as
nif ica
Ġch icas
ĠT arzÃ¡n
Ġpi ernas
Ġhi jita
Ġnie tos
pe zÃ³
Ġpan za
Ġfuer za
Por que
Ġque mÃ³
Ġni na
Ġnues tro
Ġtran quilo
Ġde vol
Ġescal eras
ĠseÃ± al
F ueron
Ġcompar tes
ĠL ina
Ġmarip osas
Ġjug ara
Ġqui tar
Ġpo zo
S ab
e pe
Ġesp era
Ġo ÃŃr
Ġala mbre
Ġse cÃ³
Ġg ota
Ġni n
Ġlevan tarse
Ġcre ciÃ³
Ġboca d
Ġempu ja
Ġcamp anas
st ros
Ġro dando
Ġpa Ã±
Ġtambor es
Ġequi v
Ġanim al
b ol
Ġex p
ÃŃ ra
Qui Ã©n
Ġchu par
Ġnin gun
Ġl en
Ġpan cita
jos a
ri dad
Ġimagina ciÃ³n
Ġse a
Ġm ami
Ġara Ã±as
Ġmar co
Ġherm anas
Ġserp ientes
Ġespa Ã±
Ġcuida ba
Ġro bot
Ġnue stros
Ġlla ves
M ÃŃra
ĠnÃºm eros
Cor riÃ³
Ġsigui eron
Ġcantaba n
d Ã³nde
Ġtren es
ĠJuan a
ĠM ama
a cio
S ara
ĠAl lÃŃ
Ġtra e
jer as
Ġabra zar
Ġri cas
Es tos
Ġint elig
Ġref res
Ġap la
Ġhones to
b riÃ³
Ġchis pa
Ġci er
ĠT u
qui er
Ġencantaba n
Ġhor ri
Ġtro pezÃ³
Ġti jeras
Ġdesp acio
ĠÃº n
Ġbra zo
Ġpri mo
Ġra yo
Ġv eo
ti do
Ġoscu ridad
Com e
g aron
Al to
ten er
Ġol iÃ³
Ġneg ras
ba do
ĠE res
Ġduer me
bi eron
Ġcolor idas
ĠEs toy
Ġcan to
Ġpate ar
Ġdifer entes
Ġson ri
Ġam bos
Ġtocar la
Ġhamburg uesas
t re
Ġtru cos
Ġpro p
oc Ã³
Ġabue los
Ġsuci as
Ġcru z
Ġatrapar lo
L ola
Ġpal ma
P um
Ġh omb
Ġjira fa
Ġcas o
Ã³ lo
Ġherman os
y endo
a c
Ġse gun
Ġbebi da
M ami
Ġd ura
Ġcocin ando
i tar
Ġsig nifica
T odo
t ri
ti mos
Ġfe as
Ġabra zaron
Ġa y
Ġmucha chos
Ġquer ida
Ġfal da
Ġbr illÃ³
Ġbaila ndo
ĠhabÃŃa n
Ġdesp ierta
Ġal m
Ġra ras
j es
ĠrÃ¡p ida
Ġsin ti
Ġdelici osos
ic os
Ġhor no
Ġestu vo
Ġalgo dÃ³n
Ġdeb eres
Ġola s
ī ra
Ġle tr
Ġpo bre
Ġj a
Ġquer emos
Ġasus taron
B us
Ġhormi ga
Ġiba n
Ġint eres
n as
Ġchic os
Ġamig ui
ĠPue do
Ġfan tÃ¡s
t bol
Te d
Ġal im
Ġdesapar eciÃ³
ĠM a
Ġencuen tra
M mm
Ã īra
Ġbas ur
Ã©c tri
Ġhambri ento
Ġfam oso
Ġt ÃŃas
Ãº tbol
Ġcanta ndo
Ġabra za
u me
Ġel Ã©ctri
Ġventa nas
Ġpij ama
r r
Ġtem b
ra c
Ġperf ume
Ġpar ecen
Ãīra se
Ġzo o
Ġf Ãºtbol
Ġbasur ero
Ġpis ta
ĠB eb
B um
Ġlar gas
Ġsu erte
ĠE so
Ġpin tÃ³
Ġequiv oc
Z az
Ġpl Ã¡s
Ġhon do
Ġsi esta
uer zo
Ġbru jas
Ġcolump ios
Ġalcanzar lo
ĠBus caron
Ġalim en
ĠplÃ¡s tico
Ġal um
Ġzanahor ia
Ġan dar
Ba ila
ĠG ritÃ³
Ġbro ma
Ġayudar on
Ġpri mos
M a
J untos
Ġtraba jar
Ġnue z
ti mi
st er
Ġletr ero
Ġse an
Ġpuer co
Ġmed ic
Ġre d
Ġmi ster
Ġdesay uno
e z
Ġla dos
Ġintelig ente
Ġneces itas
Ġprof undo
ĠhelicÃ³pt ero
ĠCom iÃ³
Ġalm uerzo
Ġescond er
Ġd uch
Ġti gre
Ġgem elos
Ġanda ba
Ġtro zo
Ġr ÃŃ
j ame
Ġf l
Ġs omos
Ġc la
Ġcamis as
Ġfal so
Ġin ven
ĠenseÃ± ar
Ġse guir
Ġconstru yÃ³
Ġigu al
Ġmar ca
ĠT ienes
Ġvisita nte
C an
Ġpap Ã¡s
Ġen am
Ġa jo
Ġrefres co
Ġg uau
Ġvesti dos
ĠÃ¡ngel es
P ap
Ġesper aba
Ġlan za
Ġtan to
Ġtab las
Ġbols as
A nita
d ÃŃcu
C harlie
Per dÃŃ
L le
Ġreal idad
M uy
bi er
Ġnues tra
V e
Ġpar Ã³
Ġasus tar
Ġdes de
Ġsu be
La ura
Ġpe g
Ġningun a
P a
Ġri dÃŃcu
Ġdeci diÃ³
Ġimporta ntes
Ġolvi dar
ci do
j oso
C arlos
Ġdisf ru
Ġpap a
qui eres
Ġesp al
D iego
Ġcorre a
Ġmar rones
Ġsonri endo
Ġs il
Ġa unque
Ġtelevis or
Ġson idos
Ġamigui to
Ġarreg lÃ³
Ġpad re
Ġven ir
Ġmol es
ĠT ambiÃ©n
Ġpens ar
Ġespal da
D avid
or me
mi ra
Ġcor ona
co giÃ³
Ġdi cen
Ġsilla s
Ġc una
Ġacer ca
Ġtra tÃ³
Ġd aba
Ġpa ci
u ma
Es tas
A b
T us
Ġcu bier
Ġva c
B ien
Ġemocion ada
Ġduch a
tin as
lo p
Ġsobri no
ĠP epe
Ġimag inÃ³
Ġcer e
Ġpos i
ci on
Ġl oc
Ġmedic ina
Ġpreocup ada
Ġhu mo
Ġun os
Ġcol ina
Ġsimp Ã¡
F ernando
Ġf ren
ĠtÃŃ os
Ġgran jero
P edro
Ġcondu jo
Cui dado
R icardo
Ġcuch illo
Ġapla u
H az
Ġescond ida
Ġescuch a
Ġp oc
ĠpelÃŃcu las
ab o
Ġtormen ta
r Ã¡
Ġtre par
Ġdes e
y or
Ġen orme
Ġmister i
Ġma yor
e x
Ġlav abo
Pel ota
Ġac uesta
Ġcar o
Ġp ena
Ġmal d
Ġdeb en
Ġpe gar
Ġmone da
Ġin vis
Ġclas e
mo h
Ġos itos
Ġenf ada
Ġlin dos
Ġal moh
Ġpueb lo
ĠnÃºm ero
Ġsu yo
ĠP uso
Ġcom ido
Sab es
E mma
Ġpele ar
ĠP el
Ġfren te
Ġchis te
Ġdol iÃ³
Ġta l
Ġesp uma
Ġsab or
Ġescond ieron
t Ã©n
Ġs os
ti cas
Ġcolump iÃ³
Ġf uri
Ġus aba
ri m
Ġd o
ora da
t Ã©
Ġcor tinas
Deb es
Ġdivertir se
ici eron
Ġl entes
L uis
Ġm ando
Ġescri bir
t oso
inar io
Ġprote ger
rim ero
Ġa ga
b es
ĠcaÃŃ do
A h
Ġa ce
cu lo
Ġbusca ba
ic al
qui ero
un dos
ĠSal iÃ³
H ugo
Ġescuch aron
Ġar ras
Ġti mbre
D Ã©
Ġfi el
Ġa Ã±os
Ġd ado
Ġap es
Ġhi ja
dad oso
ur oso
Ġen ci
Ġge me
Ġf ro
Ġse co
Ġtra mp
Ġsalu da
Ġagar rar
Ġsol tÃ³
Ġcui dadoso
Ġmi mi
Ġvac ÃŃo
s u
Ġcal uroso
Ġcans ados
Ġhacer lo
V a
Ġpla ta
Ġcambi ar
Ġo jo
Ġten ido
Ġmu er
que n
V uel
P ablo
ĠAlgun as
Ġve mos
Ġan ti
Ġmis ma
Ġacarici ar
San dra
Ġprim era
ti va
ier to
Ġpens ando
in os
la mÃ³
Ġsuci os
Ġsue l
Ġser Ã¡
? âĢĿ,
U M
Ġnervi oso
j ando
d rÃŃa
ca da
ri o
ÃŃn e
Ġl ÃŃne
Ġpuer tas
i qui
Ġace ite
Ġtoc aba
Ġtre pÃ³
Ġchup ete
ar ia
da te
Ġlasti mÃ³
Ġfl ota
Ġcuch illos
Ġson Ã³
Ġsubir se
Ġresp e
Ġpase ar
Ġaga chÃ³
Ġsal va
ĠmÃ¡g icas
en es
Ġbocad illo
F ui
Ġcar ta
z aba
o o
Ġescri biÃ³
Ġespa cio
x ima
s iÃ³n
Ġdesapar e
im o
Ã³ mi
Ġmo jÃ³
Ġpens aba
Ġalmoh ada
C re
Ġlevan tar
ban as
Ġvi vir
Ġdrag ones
Ġm undos
Ġm ama
ĠSal tÃ³
Ġest up
U ste
lor es
t ÃŃ
Un o
ĠV ieron
Ġir nos
Ġemocion Ã³
ĠsÃ¡ banas
Ġv ia
C u
Ġbaila ba
ĠP a
Ġdemas ia
Ġpeligros as
Ġadul to
Ġescond ido
i rar
Ġgol os
Ġfru to
Much as
or dÃ³
om in
Ġac uer
z z
erm e
Ġmas ti
Ġlimpi as
ĠG us
Ġc laro
Buen os
Ġno vi
ĠmÃ¡g icos
Ġvis itar
ĠP ap
Ġcol m
Ġsu bieron
Ġesper ando
Ġcolump iar
Ġnues tras
Ġexc el
Ġarreg lado
Ġcoc inar
Ġapren de
Uste des
DÃ© jame
Ġro dar
e p
e tas
Ġper don
Ġdevol viÃ³
Ġp rÃ³
Ġdiver siÃ³n
T ra
ĠA yu
Ġinvis ible
Ġd omin
di v
ĠcafÃ© s
Ġsufici ente
Ġtibu rones
Ġv ida
O tro
Ġafila dos
Ġenci ma
d oso
Ġmi ga
Ġmon te
Ġe chÃ³
San tiago
Ġllevar lo
Ġapren dido
al quier
Ġsorpren dido
c ul
ĠcÃŃr culo
F inalmente
u um
En rique
Ġbes os
Ġin stru
Ġ Incluso
Ġli g
ĠS er
Ġras p
Ġgolpe ar
Ġf ila
gu a
Ġel eg
Ġredon do
Ġcon se
i ces
ĠA sÃŃ
Ġespe jos
ĠespaÃ± ol
O l
am as
H ab
Ġla me
Ġvi ve
Ġfro tÃ³
Ġrui doso
Ġsus p
Ġhorri ble
M ama
Ġvie jas
Ġmostra r
Ġmor der
m Ã¡
Ġsab er
Ġta re
ado r
H acÃŃa
j eres
Ġllen Ã³
x ico
Ã© xico
c Ã³n
al o
Ġsen tada
Ġas om
Ġs iendo
Ġcar r
Ġmu jeres
Ġfabul oso
ĠpÃ¡ l
d uc
te mÃ¡
Ġquedar on
ens a
Ġres ba
Ġle ones
Ġton ta
ien en
Ġpeligros os
C am
Ġmonta Ã±as
Ġalum no
ĠCam inaron
s as
Ġayuda ba
da ba
Ġcon duc
A u
Ġpap ito
ĠQuerÃŃa n
Ġsentir se
J a
a dÃ³
Ġf un
Ġrug iÃ³
Ġmal vado
Ġa par
Ġp rac
Ġra mas
Ġcu alquier
Ġz um
ĠA pren
Ġatas cado
Ġaburri do
temÃ¡ ticas
U y
m y
ĠPel usa
Ġpeligros a
Ġbas ta
Ġconfun dida
Ġsinti era
Ġs ano
Ġver la
oc es
Ġdeb erÃŃa
Ã© r
Ġar ti
ĠlÃŃne a
Ġasom Ã³
âĢľ Â¿
ĠÃº til
Ġpoll itos
Ġsu per
ues to
Ġna dando
Ġp un
Ġag rada
Ġlen ta
ar se
Ġus te
Ġna tura
os p
Ġpon dr
osp ital
Ma Ã±ana
u f
Ġpro bar
Ġh ospital
ĠN eces
Ġsen tarse
Ġlib res
Ġatrapa da
Ġma temÃ¡ticas
Ġv ar
edo r
Ġtu yo
p odemos
Ġpro bÃ³
Ġvola ron
Ġconduc tor
v era
Ġcal lado
A pren
Ġhue le
Ġes os
r ro
Ġcel eb
qui la
ĠrÃ¡p idos
Ġti ra
ĠcÃ¡l ida
ĠCor rÃŃa
Ġaten ciÃ³n
Ġvol viera
D Ã¡
ĠV imos
Ġse ca
Ġf r
Ġsobri na
Ġgeme las
go te
Ġcolm ena
Ġmar iqui
ĠEs e
Ġpic ante
Ġbi gote
Ġcompar timos
ĠP arecÃŃa
Ġluch Ã³
Ġf er
Ġexc lamÃ³
Ġcomer las
bi do
Ġpreocup ado
P o
Ġfer ia
Ġsegun do
Ġras pÃ³
ĠR ex
Ġuste des
Ġacuer do
Ġaleg ro
Ġtraba ja
Ġencen diÃ³
Ġfres co
h o
Ġsa ca
uer da
Ġmo vieron
Ġasquer oso
Ġayu das
Ġ **
Ġgus tar
S omos
i tiÃ³
Ġgar ras
Ġnovi os
Ġlad rar
ue sa
Ġchis tes
Ġfuer an
ta lo
Ġperfec ta
? âĢĿ.
am ente
Ġbail e
mo to
Ġter re
Ġvec inos
Ġf ras
Ġm Ã©
ci p
Ġtan tos
z Ã¡s
Ġc uel
el lo
ĠV i
m elo
Ġus a
Ġnaran jas
ĠDi os
ver dad
Ġg ros
Ġcubier tos
Ġa go
Ġv oces
Ġpantal Ã³n
i tÃ³
eo w
Ġcompar tiÃ³
Ġcon vir
ĠM Ã©xico
Ġpos Ã³
Ġfras co
in ado
Ġg anas
Ġna ciÃ³
Ġmasc ota
Juan a
Ġcon tra
d ico
Ġmo jar
ĠtÃŃ mi
un es
Buen o
V uela
cÃ³ mo
Ġven da
Ġespon josa
Ġresp irÃ³
ĠL es
Ġcab ello
Ġap re
men tos
Ġdes eo
H a
Ġtare a
Ġvolver Ã¡
Ġinvi tÃ³
ce ta
ti to
ĠsabÃŃa n
Bo om
r Ã¡s
Ġgolos inas
Ġalimen tos
Ġinstru mentos
Ġcuidar Ã©
Ġsu ya
Ġrep itiÃ³
Ġtra er
Ġque ma
Ġcompar tieron
Ġdecir le
Ġmaes tros
Ġtelevis iÃ³n
Ġdisf ra
ar Ã©
Ġvia je
ĠmÃ© dico
Ġcuidar ÃŃa
cer a
Ġ '
Ġmariqui ta
Ġpos tre
taba n
ĠE mp
Ġmiga jas
ap o
Ġf amos
Ġqui eta
Ġprin cip
Ġcal mÃ³
G ol
P od
Ġhar ina
Ġtan ta
Ġban ana
eg io
li cÃ³
Ġcal en
Ġsu p
Ġvi mos
Ġterre moto
Ġcol egio
Ġser io
Ġsa cu
Ġcom idas
Ġcuel lo
Ġp esa
en zÃ³
D es
Ãº p
Ġtibu rÃ³n
Po bre
Ġca yeron
Ġgu ay
Ġcondu ci
z ado
ĠSan ta
Ġvuel ve
Ġgru Ã±
Ġbal cÃ³n
Ġsen c
Ġmes as
ill oso
Ġba ba
Ġhar ÃŃa
ĠV oy
Ġve ter
P rimero
Ġcarr era
Ġfal sa
ita mos
Ġapa gar
ĠC an
Ġsimp le
Ġv om
p ÃŃ
Ġgran di
ue le
P ara
Ġrecor dar
Ġu Ã±as
p as
Ġtom aron
Ġl ila
ue lo
Ġveter inario
C on
Ll Ã©
Ġrasp Ã³n
Ġpare ce
Ġquedar se
Ġra ros
Ġcomer Ã©
Ġre ceta
Ġfor ma
Ġir me
Ġocup ada
ĠC on
T an
Ġv iendo
Ġagrada ble
Ġmarav illoso
ĠS oy
Ġent ero
ba s
pa Ã±
Neces itas
Ġhamburg uesa
Ġdel gado
Ġ jo
Ġhici ste
Ġtu r
Ġve la
Ġpreci oso
Ã¡g ri
ĠplÃ¡ta nos
Ġinvi erno
o b
M eow
Ġni no
Ġest Ãºp
Ġdi ez
Ġl Ã¡gri
Ġromp en
Ġeno jar
Ġmasc otas
Ġconvir tiÃ³
Ġest Ã©
am ento
Ġoc ur
Ġasomb roso
Ġmu s
A p
Ġor den
un ar
Ġr os
cuch Ã³
es tÃ¡s
Ġestu di
Ġexp licÃ³
Ġresba la
ĠprÃ³ xima
Ġgeni ales
Ġs ido
Ġtra je
Ġver ano
S o
dos e
, âĢĿ
g amos
TenÃŃa n
Ġsue Ã±a
Ġdes li
Ġpers i
Ġbrilla ndo
Ġencontra do
or presa
oh n
es tas
Ġv room
Ġdi ci
Ġhu bo
ra de
Ġcompar tÃŃa
B am
Ġa de
T oc
ra te
Ġsu b
g la
Ġl lores
Ġmal etas
ĠsÃ¡ bado
ern os
Ġag rade
Ġsab ros
Z uum
Ġve ÃŃan
Ġjueg ues
Ġna ve
Ġayudar la
ĠlÃ¡gri mas
ĠT odas
Ġtromp a
Ġjun gla
Ġceleb rar
v iendo
Ġle yendo
ĠÃºn ico
o jo
ĠsimpÃ¡ tico
s er
Ġromp ieron
ĠhelicÃ³pt eros
Ġcuer po
Ġhoy o
Ġcom paÃ±
Ġdar te
Ġcer ra
Ġte cho
Ġneces ito
Ġca ÃŃa
S Ã©
Ġdomin go
ĠT odo
Ġclas es
Ġdesp i
Ġhablan do
go ÃŃs
Ġe goÃŃs
Ġmov ÃŃan
Qui zÃ¡s
Ġri endo
Ã¡ jar
Ġv in
Ġcam biÃ³
Ġs Ã³lo
Ġd ame
Ġdesli zÃ³
G an
Ġcin e
Ġsalta ndo
Ġac ordÃ³
Ġva go
Ġayu d
Ġcam pe
Ġson re
Encon tra
ĠBeb Ã©
A r
Ġfres ca
ta ndo
Ġest Ã©s
Ã© ano
Ġol er
com enzÃ³
ĠfantÃ¡s tico
Ġf lo
Ġcas i
Ġes as
D i
Cre o
ga da
Ġcre er
Ġarras trÃ³
Ġsil enci
Ġconduci r
ti s
enci a
Ġo ÃŃ
El las
Ġro bÃ³
Ġdisfra ces
Su biÃ³
Ġigu ales
Ġarti fici
Ġaburri da
ĠCom ieron
S ofÃŃa
u do
Ġa div
Ġin f
Ġpalab ra
m uy
Ted dy
Ġmon tÃ³
Ġblan cos
osa uri
Ġtu vieron
Ġexcel ente
Ġla ta
Ġoc Ã©ano
Ġpla za
do te
Ġocup ado
Ġgus taron
Ġpeg amento
Ġdin osauri
ra y
ĠN iÃ±o
Ġcier to
ci dad
Ġabrir la
Ġcos ita
Ġatrapar la
Ġbot ones
ĠegoÃŃs ta
Ġpi el
ĠrÃŃ en
Ġdivier te
P as
Ġca Ã±a
Ġc ray
Ġcere al
Ġespon joso
Per don
ĠridÃŃcu lo
T ran
Ġf ero
ĠtÃŃmi do
Ġgros ero
ĠC ada
g Ãºn
Ã¡jar o
Ġs ana
Ġmoles to
Ġsacu diÃ³
n u
Ġpon en
ĠhacÃŃa n
ta dos
EstÃ¡ n
V room
Ġca ras
V as
n ic
Ġcompar ten
Ġllev aron
Ġt ÃŃa
Ġpic nic
Ġro bar
Ġc l
Ġarro jÃ³
ĠT al
Ġpate a
ĠelÃ©ctri co
par Ã³
Ġra ta
O uch
Ġ Quiere
Ġcal vo
Ġ w
A prendiÃ³
Jug amos
Ġreal mente
Ġdiver tÃŃa
Ġfeli cidad
Ġdivier ten
Ġtocar las
Ġm Ã¡
Ġasusta dos
Ãº l
g ando
ie bre
t illos
Ġnecesita mos
ĠÂ¡ "
Ġayuda ra
Ġm ientras
Ġci erra
Ġf iebre
ĠhÃ©ro es
Ġgustar ÃŃa
Ġor illa
Ġenf adÃ³
Ġent re
en d
Ġvie jos
ĠM uch
c ÃŃ
Cor re
Ġpap i
Ġtan tas
Ġpersi guiÃ³
Ġllo viendo
Ġempujar on
v room
ĠMa ya
Ġprac ti
ĠdifÃŃcil es
Ġpue s
Ġvola ba
J esÃºs
Ġcam as
Ġnue ces
Ġcan asta
Ġlimpi os
Ġcam ina
Ġdar les
ĠApren dieron
Ġredon das
Ġlugar es
Ġav en
ĠM ami
Ġpi pÃŃ
Ġpare des
P arecÃŃa
Ġhones ta
Ġencontrar la
Ġconf i
Ġpara da
Ġfavor itos
Jug aron
Ġbru to
Ġfuri oso
Ġequivoc ado
Ġg en
Ġvi era
Ġdes cu
Ġprima vera
B eb
Ġacer a
Ġgor da
Per dÃ³n
al las
Ġbuscar lo
T im
Ġgra tis
Ġbeb e
Ġacer caron
Esta mos
Ġlevan ta
Ġten drÃŃa
Ġper der
Ġpelu das
Ll ueve
ci da
Ġcre a
Ġdi g
P lop
D uer
Ġver los
Ġenc erra
Ġmarav illos
Ġpon ÃŃa
Ġl oca
C a
Ġsegu ros
Ġgran dote
Ġfero z
timi ento
Ġa trÃ¡s
ĠDi bu
Ġmen Ãº
eg res
Ġencontrar lo
Ġpel os
Ġdinosauri o
Ġpu dieron
Ġcampe Ã³n
Ġcos ta
ĠN os
P ip
Ġcon taba
Ġcas tillos
Ġha gas
ĠJ ohn
Ġsu po
Deb emos
Ã¡n do
Ġob ser
Ġgus te
Ġtran quila
Ġregres aron
cul os
Ġbuen ÃŃs
Ġpar iente
Ġsorpren dida
cÃŃ f
Ġsal Ã³n
ĠCom par
p s
Ã³mi co
ac k
ro pe
Ġpre parÃ³
LlÃ© v
Ġproble mas
T o
Ġsombr eros
Ġocur riÃ³
Ġgar gan
a tito
Ġcar rito
Ġpon erse
v uel
Ġal gÃºn
Ġpres en
Ġcans aron
Ġdu ras
Ġaplau diÃ³
Ġgargan ta
Ġpa gar
Ġd orado
ĠP an
ti endo
Ġest rope
Ġconstru yeron
Ġvuel tas
Ġfun cion
Ġaleg raron
Ġ I
Ġcre ci
ten ÃŃa
ul io
z c
Ġme tido
Ġsin tieron
Ġasquer osa
Ġes ti
f ri
Ġtocar los
Ġbel la
Ġpan al
Ġcomprar lo
E mp
di era
Ġgra ve
Ġtramp oso
Ġverdad ero
Ġcuri ta
ĠcompaÃ± ero
Ġempuja ba
il os
Ġva yas
D is
c amos
Ġromp e
Ġtu viera
Ar riba
Ġin oc
Ġsol os
Ġchu lo
ĠpaÃ± ales
Ġpelu dos
Ġd er
ci al
j en
el la
ce p
Ã©n dose
Ġguar dÃ³
Ġcor ta
Ġvi ven
do ra
Ġpe or
r Ã©
S Ã¡
Ġpus iera
Ġgu apo
Ġm in
ra mos
Ġto allas
Ġayudar Ã¡
i go
ĠEs per
Ġele c
Ġmed io
Ġen cogiÃ³
Ġdejar on
ĠcÃ³mo do
Ġsen tar
Ġsaluda ble
Neces itamos
Ġami sta
Ġterm ina
" !
Ġan illo
Ġj u
Ġdesper tar
Ġg ras
ĠD os
Ġoscu ras
Ġpi cÃ³
Ġcuri oso
Ġayudar ÃŃa
ĠP er
Ġposi tivo
L lo
Ġpara r
ĠT ocÃ³
Ġhici era
Ġtor res
Ġbara ta
Ġquer ido
Ġres fri
j eron
Ġhi ce
Ġcontar le
N adie
Vuel ve
ĠincreÃŃ bles
Ġun idos
Ġb Ãº
L ina
Ġfal sas
Ġs el
Ġtriste za
Ġde cep
D ale
Ġamista d
in es
g e
as te
b ota
Ġsig ue
Ġsel va
d amente
Ġm er
trÃ³ n
Ġsalva jes
ĠCam inÃ³
Ġman era
Ġre bota
Ġelec trÃ³n
ĠSu biÃ³
Ġrec uerda
Ġte mp
ten diÃ³
Ġcor tas
Ġdese aba
Ġresp irar
Ġpas os
C h
il Ã³
Bo o
ter ri
ĠDe bes
ĠÃºlti ma
m Ã¡g
Ġcomprar Ã©
Ġlis tos
Ġimag en
Ġro tas
Ġestudi ar
mÃ¡g enes
Ġi mÃ¡genes
Ġdistin tos
im e
Pap i
Ġdar me
ĠH a
Ġresfri ado
Ġd orada
Ġmin u
Ġnar ices
Ġpaci ente
ĠEs a
Ġentra ron
Ġd an
ĠbÃº ho
Ġllen as
Ġsuave mente
Ġa terri
Ġjar rÃ³n
ti ene
bi os
Ġbara to
Ġle ÃŃa
ĠSara h
ĠsoÃ± ar
Ġesca pÃ³
o of
Ġque mar
Ġlar gos
Ġb um
Jug Ã³
ĠEn con
ĠM aria
ran o
Ġsop laba
Ġdig ital
ĠH icieron
ie za
Ġsa g
a ran
Ġgrandi oso
Ġcor to
Com iÃ³
Ġfamil ias
Ġgras a
Ġval i
Ġcompar te
Ġan dando
Ġcel oso
Ġsien tas
Ġme j
Ġtemp rano
Ġhon rado
Ġtoc ando
bi era
Com ida
in g
Ġesc amas
Ġllevar Ã©
Ġcre ÃŃa
Ġat re
Ġhermos os
Ġapes toso
Ġestu fa
Ġla bios
Ġide al
or t
of ia
ba mos
V ale
Ġmus ical
Ġvin ieron
B UM
Ġsan gre
Es pero
e zÃ³
l iz
to rio
Pon te
Ġhacer te
Ġemocion ante
Ġpoc os
Ġacurru ca
ab les
Ġpate aba
Ġper dida
Ġcolor idos
u u
D ime
Ġpas o
Ġsem ana
Ġcom iera
AyÃºd anos
Ġt ron
Ġex tendiÃ³
Ġencan tada
Ġw oof
ĠcÃŃr culos
Es as
V er
Ġpondr Ã©
Ġgran ero
Ġconti nu
ĠÃºlti mo
la ra
Fui mos
Ġhomb ros
Ġa tÃ³
ri a
Ġjo ven
Ġaten to
P Ã¡jaro
ĠBa ila
ÃŃ ste
Ġqui en
Ġdesp ierto
com o
Ġprop ia
Ġmisteri oso
U sa
Ġe du
Ġesta mos
V olÃ³
ĠsoÃ± ado
Ġsilenci oso
Ġros tro
Ġle e
A sÃŃ
pe d
Ã©s ped
Ġre ga
Ġmu riÃ³
Ġpega josa
Ġencan tÃ³
ri n
M oo
i or
Ġresbala dilla
Ġvi va
Ġc Ã©sped
Ġpate aron
im as
Ġregal Ã³
Ġdurmi eron
n y
Ġpar tir
Ġcua tro
MÃŃra me
Ġcolumpiar se
Ġdepor tes
Ġper d
Ġpaci encia
Pue de
Ġtor pe
A m
Ġcom edor
ĠfrÃŃa s
ĠF ueron
Ah ÃŃ
Ġba Ã±os
Ġle al
Ġlla mar
Mi a
Ġvaca ciones
ĠcÃ³mo da
Ġesti rÃ³
Ġm ora
d Ã©
M ientras
Ġcre yÃ³
Ġmu do
H asta
m endo
Ġo p
Ġextra Ã±os
Ġdormi torio
Ġescond ernos
Des de
er rÃ³
Ġpe gado
a das
P ÃŃo
Ġenfada do
Ġjug amos
la je
Ġab ier
Ġa diÃ³s
Ġcu bos
ĠfÃ¡cil es
Ġpele aban
Ġten dr
ĠD entro
ĠB ob
ĠO tros
Ġq u
ig ue
Pod rÃŃa
Ġpoc as
Ġnada ba
Ġgri tar
H oy
Ġabra zaba
Ġrespe tar
Ġbra vo
Ġaleg res
Ġre ÃŃ
Ġca en
Ġgen er
v ido
Ġencantado r
Ġaterri zÃ³
Ġbel las
t ÃŃs
Ġb end
Ġtron co
Ġeleg ante
Ġsan to
Ġaf ort
m es
Ġa dora
Ġpe laje
Ġg i
Ġro tos
n ta
Ġpi de
Ġayu dando
Ġme zc
om en
Ġar tÃŃs
en omen
Ġse car
ĠS Ã³lo
Ġser ia
ĠDi ce
Ġcru j
h ay
la nte
ar io
Mi mi
lan do
Ġdescu briÃ³
Ġcompartir lo
Ġacurru caron
ub io
x il
Ġah o
Ġpon gas
Ġjug oso
Ġr esta
Ġencerra do
Ġnadar on
Ġres to
L isto
Ġsienta n
u rante
Ġlig ero
w n
Ġale m
ro wn
s ol
Ġapar eciÃ³
Ġsab io
Ġtormen tas
er g
Ġga ta
Ġale jÃ³
Ġconfi able
xil io
Ġre ci
Ġpu ra
Ġin cÃ³mo
Ġtener lo
Ġpo p
Ġamaba n
Ġaven tura
Ġpues to
Ġf ina
Ġest os
Ġr ubio
Ġespon jos
Ġle on
Ġasus tes
Ġburbu ja
Ġtre mendo
Ġgor dos
Ġor ig
Ġsufici entes
Ġpreci osa
Cor rieron
Ġdes liz
elo z
Ġsignifica ba
Ġhora s
Ġrad ical
Ġcol ocÃ³
Es cuch
Ġvola ban
Ġf enomen
Ġresta urante
Ġmald ita
s on
Ġrecor dÃ³
Ġpod rÃ¡s
Ġv eloz
ĠB rown
ja te
Ġc ris
Ġbasta nte
Ġm od
Ġlavar se
Ġfal sos
Ġ"Â¡ Â¿
H i
Ġsop lar
Ġenfada da
Ġpueb los
ĠPap ito
ĠDibu jÃ³
Ġpres ion
Ġm ensa
Ġcel osa
Ġin g
ÃŃs imas
x ic
s Ã©
Ġjugar ÃŃa
Ġestup endo
v ar
che mos
Ġta pÃ³
Ġp untos
Ġprem on
me la
D ormi
Ġme xic
Ġmald ito
Ġhe cha
Ġcomer los
ĠpaÃ± al
ta n
Ã¡s ame
Ġmasti car
uf f
G ato
Ġtur no
H icieron
Ġdi cho
Ġlimpi ando
Ġad mira
Ġsusp irÃ³
Ġexp l
Ġfor mas
Ġago tada
Ġcom es
es or
v ÃŃan
Ġpel usa
ier an
Ġamig ables
Ãº rate
Ġpas ado
Ab uela
ot Ã³
ÃŃ jate
Ġobser vÃ³
Ġcal lada
U ps
Ġdo ble
Ġcin co
Ġgolpe a
Ġcal les
Ġen vuel
Ġsus to
Ġ osa
Ġra yas
Ã± ame
Ġc ie
P up
Ġpoder oso
Ġcom prendiÃ³
ĠÃºn ica
uÃ© nta
Ġun iÃ³
c ta
g ue
P Ã¡same
Ġre un
Ġcomp ra
ĠCor re
Ġjug ado
Ġsuel to
ĠpÃ¡ g
y os
Ġatas cada
i ciÃ³n
ÃŃ date
Ãºd ame
Ġfamos a
ci a
tu ras
ĠAyu dar
os ible
ta te
Ġl Ã³
Ġpremon iciÃ³n
Ġpos ible
Ġf ino
Ġhomb ro
Ġmisteri osa
e jo
Ġcosqu ill
Ġbebi eron
Au xilio
mi au
ĠL lo
G atito
Ġregres ar
Ġbajar on
Ġcosquill eo
Ġpas aba
Ġchup Ã³
Ġsin cera
Ġcer rado
Tra e
ĠmamÃ¡ s
T ambiÃ©n
Ġcuida dos
Per ro
ti en
Ġcol gando
Ġtoc aron
Com p
Ġvom itÃ³
Ġartifici al
Ġpop u
Ġing eni
Ġore ja
Ġquedar te
Ġentra da
Ġextra Ã±
Ġsue na
rr r
Ġri cos
Ġ risa
Ġno ta
Ġch ino
Ġesta nte
tÃ©n talo
or d
Ġop timi
Ġap un
Ġbomb ero
Ġhu biera
Ġfenomen al
Ġll ueve
Ġemp ieza
der as
Ġjugue tÃ³n
Ġdepor te
a cÃ³
Ġlim ones
Ġbr illo
Ġob tener
h abÃŃa
Ġpega joso
DÃ¡ melo
c key
Ġlan zar
Ġton tos
Ġex ac
Ven ga
Mi ckey
sÃ© Ã±ame
Ġa ren
Ġes cogiÃ³
In tÃ©ntalo
Ġde c
Ġapa garon
ĠpÃ¡l ido
Ġfr un
Ġc e
Ġmal va
ĠPap i
Ġsalu dÃ³
Ġlo g
Ġllo ras
Ġnatura les
Ġagu as
Ġminu tos
Ġlu cÃŃa
Ġco jo
Ġpresen timiento
Ġchis toso
Ġman tener
Ġen s
Pue den
Ġhar Ã©
omb ra
T erm
Ġpesa das
ĠR ojo
Ġaren ero
R egres
ern es
ta mos
Ġvi ernes
Ġes co
ĠmÃŃ os
Ã¡ r
uc iÃ³
Ġpoder osa
Ġrecor daba
uev es
Ġpele aron
z ones
Ġarreg la
uÃ©nta me
ĠbuenÃŃs imo
S ue
ĠDe b
ĠO l
Ġce Ã±o
Ġmuch ÃŃsimas
Ġro de
Ġens uciÃ³
Ġen su
er ÃŃas
Ġpelig ro
j an
Ġhacer la
das te
Ġfabul osa
Ġextra ord
ĠlÃ³ gico
Ġcomer cial
Ġbel lo
Ġprof un
Ġloc as
Ġc ien
Ġmensa je
Ġfrun ciÃ³
Ġcl Ã¡s
Ġterm inado
ten go
Ġbo bo
ris as
ris te
ĠPer ro
Ġmostra dor
Ġequivoc ada
Ġanti gua
t Ã©s
un tas
Ġempe zaron
Ġcar os
Ġal f
Ġcris ti
B asta
ĠMuch os
ĠA unque
Ġdesay unar
c ero
Ġchis pas
F in
ĠC a
Ġan ima
ur ra
Compar te
ec to
Ġadora ble
Ġadul tos
d ente
Ġoptimi sta
E chemos
Ġau tÃ©n
Ġg r
cÃŃf ico
Ġest Ã©n
Ġllen os
ĠA b
Ġencuen tro
Ġalf ombra
Ġme ti
Ġo h
Ġ ÃŃn
Ġap uesto
Ġdemasia das
Ġmen os
Ġdistin tas
Ġqui s
Ġt io
Ġtem er
or den
Ġvis ta
Ġfi estas
Ġruidos os
Ġsup uesto
Ġdes orden
la te
ven ido
Ġorig inal
Ġcolor ida
d iste
Ġes tas
Ġm ÃŃas
ÃŃ os
Ay Ãº
H ici
ĠelectrÃ³n ico
Ġcom Ãºn
LlÃ©v ame
Ġigles ias
Ġo v
Ġre vol
Ġconse jos
Ġl unes
F ÃŃjate
v aba
Encon trÃ©
Ġprepa rado
Ġc iego
Ġalem Ã¡n
ĠT ito
Ġimp osible
Ġenam orada
Ġbarri o
Ġasomb ros
ĠEsper Ã³
Ġjard ines
Ġolvi des
H urra
Ġdepor tivo
Ġlenta mente
Q ue
Ver Ã¡s
Ġver las
Ġp eli
ĠespaÃ± ola
Ġqui Ã©n
Ġcoc inÃ³
g uera
Ġcal mado
Ġov illo
Ġatre vido
r il
Tran quilo
S orpresa
Ġent era
te o
Ġabri eron
Ġcapa z
col es
Ġpu ro
ĠparecÃŃa n
Ġten iendo
Ġhar Ã¡n
qui to
Ã¡l late
Ġsimp les
Ġdes tro
Ã©r coles
Ġinven tado
Ġacer ques
Ġrodilla s
Ġmen or
Ġinven tÃ³
D esp
Ġdo Ã±a
En sÃ©Ã±ame
N unca
Ġhabla ron
eli ci
Ġre zar
Cor rÃŃa
ĠCom p
DÃ¡ mela
Ġmal eta
Ġa tado
Ġm odos
Ġdeli cado
p es
Ġconf iado
Ġfa tal
Ġcom iste
esor os
d iendo
Ġas iento
Ġcamin aban
rer as
Ġcar reras
Ġva ya
Am bos
mi en
Ġcora zones
Ġesca par
ĠdivertÃŃa n
Ġdiver tÃŃ
us es
Ġque mado
Ġpu diera
Ġsan ta
Ġdar Ã¡
Ġver te
Ġencantado ra
Haz lo
Ġadmira ble
Ġmi Ã©rcoles
Ġmar tes
Ġhar to
! ,
i damente
Ġcor ren
Ġter cer
h h
Can ta
Ġdescan so
Ġprepa rada
Ġdi re
in ta
Pap ito
Ġper mi
Ġayudar nos
Ġprop io
ĠestÃºp ido
Ġflo taba
Ġt esoros
Ġb oc
in aba
ĠpÃ¡l ida
Ġcar ici
Ġmuer de
ĠC o
Ġp oca
s ito
ĠfantÃ¡s tica
j eros
Ġsusp en
ba ble
Ġpreci osas
Ġautob uses
Haz me
Ġpens aron
Ġbru tal
Ġquier as
Ġcabe zas
ĠPa co
Cam inaron
Ġedu cado
U sar
Ġextra Ã±as
Ġcom ÃŃan
Ġsenc illo
tra ron
bi a
Ġus ado
ola r
Ġpase ando
gue me
Encon trÃ³
Ġqueda ra
Ap Ãºrate
D elici
Z um
Ġestuvi eran
c Ãºl
Ġnave gar
Ġmo da
e e
Ġsen tÃŃ
Ġa Ã±o
Ġpro me
Ġgan ador
Ġlis tas
Ġher ida
Ġm ente
C alla
Ġpopu lar
il e
Ġson aba
Ġconoc er
Ġcol orado
Ġsegun da
Ġdecep cion
C Ã¡llate
Ġqueda ba
Ġpres entes
Es per
ba m
Ġhorri bles
ĠrÃ¡p idamente
ĠBaila ron
ĠC lara
Ġensu ci
Ġmas a
Ġexac ta
Ġtra ÃŃa
Es os
MÃŃra lo
Ġsi mi
omb res
Ġllevar la
Ġfinal mente
Ġti raba
Ġvesti da
Ġdibu ja
F uera
Ġlig era
Ġanima dos
ĠLle gÃ³
Ġsuel ta
T iene
Ġconse guir
Ġesponjos as
ĠCompar tir
ĠdÃ©bil es
V ol
Ġgra mos
J ue
Ġdespi diÃ³
HabÃŃa mos
Ġafila das
pe me
Ġprincip al
ĠridÃŃcu la
Ġbrillaba n
Ġmasti cÃ³
ĠEs cuchÃ³
Q uer
Ġen ter
Ġinoc ente
Ġper dÃŃ
V es
Ġper ri
ĠEst Ã¡n
Ġdu ros
o Ã±a
D ul
Ġbocad illos
Ġpas aron
Ġlavar te
Ġsor do
ĠF in
Com er
Ġn ombres
Ġcor tos
Ġca p
a pa
Ġh ola
Ġcomer se
Ġnorm ales
Ġraton cito
cÃºl peme
Ġher ra
ĠL u
Ġherra mien
uc k
Ġp lop
G us
Ġduer men
uff y
ĠA briÃ³
men da
Ġdecepcion ado
er ic
ĠelÃ©ctri ca
Ġpeli rro
Ġb rin
Ġvali oso
T odas
Ġfamil iar
Ġlo ro
Ġin tens
Ġcola s
Ġtu yas
ris to
Cu ÃŃdate
C uÃ©ntame
v ÃŃ
l uffy
Ġc Ã³mico
Ġam eric
Ġus ando
uc risto
es ucristo
gu au
Ġre ina
In ten
Ġe con
P odr
ĠPue de
Ġsonre ÃŃr
Ġcua d
ĠR osa
ĠtÃŃ p
Ġtemb laba
Ġol ÃŃan
Ġdici endo
Ġ on
Z zz
Ġinten tar
e mbre
Ġenojar on
za da
ĠrÃŃ os
De jen
Ġescuch aba
Ġaf ecto
Ġagu jeros
Ġvuela n
Ġsu yas
Ġba ng
H uele
Ġdes esp
tia gu
Ġpun tiagu
SÃŃ gueme
Ġj ueves
Ġlan zaba
mp oco
ota l
Ġcom ÃŃ
Ġac ab
Ġta mpoco
Ġtu ya
Dul ces
Ġenoja dos
Al go
Ġesco ba
Ġder ri
in ce
Ġsalva je
Ġgus to
Ġgener oso
Ġacariciar lo
Ġman e
ta c
uÃ© l
Ser Ã¡s
Ġpresion Ã³
ĠSon riÃ³
ĠincÃ³mo do
od Ã³
r ÃŃ
Ġdici embre
Ġcrea tivo
tica ba
Ġnecesitaba n
Ġcontinu Ã³
Ġdec ente
Ġcre o
Ġper dÃ³n
Ġent riste
ĠCo giÃ³
Ġcom unes
Ġabra zos
Ġinc l
Ġval ientes
Ġle j
Ġcray ones
Ġbasta ntes
C ar
in cluso
den me
Ġg irar
Ġponer lo
Ġinteres ada
Duer me
Ġapre tado
es taba
Ġcanta n
Ġsu ce
Ġmi ran
ĠoÃŃ dos
Ġcuri osa
U s
Ġpij amas
Ġsos tuvo
Ġinf or
Ġd uen
Ġpracti car
ĠÃŃn ti
Ġvi vÃŃan
ues tra
Ġpico teÃ³
l Ã¡n
ma da
A pa
Ġapun tÃ³
Ġbaila ban
Ġfe men
Ba tman
Ġcuad ro
Ġimpor taba
ic to
Ġcuidar lo
Ġe rro
ĠP or
Ġap ro
Ġd as
Ġbend ito
Ġir Ã¡
quen lo
Ġdel gada
Ġfuri osa
ve te
Ġmej illas
Ġcer d
Quer emos
Ġpregun tar
J usto
un ado
Ġpata das
Ġen tien
ta ra
Ġpajar itos
Ġtraba jando
Ġcomp le
Ġb esa
Ġinteres ante
y e
Ġflota ndo
Ġmeti da
Ġsab en
Ġade lan
lÃ¡n tico
Ġqu ince
Ġsin cero
Ġrecordar ÃŃa
Dis cÃºlpeme
V imos
Desp ierta
F uego
Ġcomen zaron
Ġolvi dado
Ġade lante
Ġcomp raron
Ġla mi
ĠS acÃ³
i cÃŃa
Ġlad rando
Ġjue gas
icto ria
Ġinteres ado
Ġmes es
Ġn e
Ġpol icÃŃa
Ġlen gua
Ġsag rada
s la
G ritÃ³
Ġdesapare cido
Ġanti gu
Ġnatura l
Ġdevol ver
Ġestrope ado
Ġenferm Ã³
Ġprepa rar
Ġsomb ras
Ġdistin to
Ġdeli cada
Ġllevar te
Ġafort unado
Ġpelirro ja
Ġen ero
Llo vÃŃa
ĠlÃ¡p ices
to dos
ĠL l
QuerÃŃa n
Ġlasti mar
Ġeleg ir
Ġcor ras
vÃŃ d
Ġvi vo
Ġasomb rÃ³
U h
Ġenam orado
Ġsuper h
Ġe ch
Ġes tado
Ġacarici a
Hab lar
Ġmover la
Gol pe
Ġman guera
Ġperdon o
f an
z quier
Su be
Ġti erno
Ġsen tados
Ġab ierto
bre la
A uch
Ġdisfru tar
Ġi sla
Ġapa ga
Ġi zquier
ĠBen ny
V eo
Ġfe os
ĠsoÃ± ando
ĠA t
Ġle tras
Apren dÃŃ
ri ger
Ġref riger
Ġcoche cito
Ġpu Ã±os
Ġagrade cida
Ġm uev
Ġsu til
Ġe vi
Cui dar
Ġnervi osa
Ġme te
i mp
x imo
Ġse Ã±a
Ġv ienen
tu bre
Ġmojar se
ĠCan taba
e me
Ġabrir lo
ca ba
Ġsal en
Ġencontra mos
ora dos
Ġm el
Ġbol so
la me
Ġsuperh Ã©ro
Ġba jas
Ġman tas
Ġponer la
Ġpesa dos
be de
Ġon ce
Ġh un
Ayu do
ĠBeb iÃ³
t Ã¡
f ue
Ġentriste ciÃ³
Ġpod eros
Ġcarici a
Ġay Ãºdame
Ġp Ã©
Ġde tiene
ĠV ol
Ġzum bÃ³
Ġlasti mado
Ġmuer to
Ġvar ios
ÃŃ do
ĠBa ilÃ³
ier ra
Ġcomprar te
Ġob vio
Ġmora l
Ġan cho
Ġmo vi
Ġpue da
Perdon a
ĠAt lÃ¡ntico
Ġsab es
la ron
ĠJ uega
dr Ã¡
Perdon en
Ġjueg ue
tar Ã¡
P are
Ġhay a
Ġago tado
s orpresa
Ġrega zo
Ġayudas te
ĠT ra
ti enes
Ġolvidar on
Ġneces ario
Ġadiv ina
Usar Ã©
Ġse is
Ġser Ã¡s
V ieron
Ġcon tes
Ġbu fan
Ġj us
uÃ©l talo
Ayudar Ã©
Ġolvi da
ĠCon ejo
re gun
Ġsenc illa
Ġre zÃ³
Ġsacar lo
Ġtemb lÃ³
ir p
Ġayud amos
Ġab ril
f as
Ġt otal
Ġca ÃŃan
en tos
Ġcon taron
Ġreun idos
S up
Ġbal ones
ĠP on
Ġmis mos
O k
ĠMi ra
Ġm ue
Ġtre menda
Baila mos
ui mos
Ġbus co
Ġcray Ã³n
AyÃº denme
Ġpantal la
Ġcomple to
Ġa vi
Ġd ando
Ġjun io
Ġca yendo
Ġrefriger ador
Ġbro mas
Ġenvuel to
Ġban ca
ĠT oc
Ġcerra das
Ġcorre cta
Ġdi ec
Ġsos tenÃŃa
Ġsal vÃ³
Ġr u
io cho
Ġdiec iocho
gos to
T oca
Ã ģ
Ġdire cto
Ġsal vado
Ġescuch ando
Ġpun to
Ġpi car
Ġbufan da
a k
qu ina
en tÃŃa
m b
ĠD es
Ġtre inta
Ġju z
Ġpara do
ci eron
Ġa gosto
Ġaplau dieron
Ġsal p
Ġdi era
Ġreci biÃ³
Ġpre f
Ġoc tubre
Ġacos tado
Ã© l
Ġcu briÃ³
H e
Ġpas an
Ġvi vos
Ġsegu ÃŃan
Ġla m
que ak
De bo
Ġsabros a
Ġtendr Ã¡s
Ġcla ra
Ġmar zo
B rrr
D ios
Ġban anas
Ġem ba
v eni
ta d
ĠJug amos
Sup erman
Ġalcanzar las
Ġbrilla r
g ra
Ġsentir Ã¡s
Ġsabros as
Ġpele ados
Ġproteger ÃŃa
SÃ¡ quenlo
Ġtom ado
Delici oso
Ġs ensa
Ġduen de
ĠTim my
Ġjuz gar
Ġcor ra
Ġquie tos
c ur
Son Ã³
ĠS ofia
Ġl unar
Ġperri ta
Ba ja
S uÃ©ltalo
sol u
Ġpegar le
Ġcon ver
Ġescond ÃŃa
Ġd ada
Ġsensa ciÃ³n
ĠCa yÃ³
Tom Ã³
qu ilos
d is
Ġquer er
ĠD an
P ens
ra Ã±a
Ġhacer los
v Ã¡n
Ġen erg
Ġcom pren
P an
Ġmedio dÃŃa
ĠDi jeron
Ġmalva dos
Ġescond erme
Ġgri to
Ġcor tÃ©s
Ġentien de
Ġcon cur
ĠenseÃ±ar Ã©
Ġpo quito
Ġsola r
Ġprote g
ĠF luffy
Ġrevol o
Q u
Ġlunar es
Ġmov iendo
vÃ¡n tate
Ġmexic ano
Z as
g uen
Ġenerg ÃŃa
d ura
âĢ ĭ
Ġencontra rÃŃa
Ġgi raba
Ġabier tas
Ġemba raz
Ġti res
ĠvacÃŃa s
ĠsuperhÃ©ro e
Ġab solu
Ġconcur so
De ja
Hi ce
Ġgolpe aba
Ġimag inar
Ġpele as
Ġllama dos
Ġfr ÃŃos
veni dos
Ġcangre jos
Ġdar ÃŃa
Ġf rito
er ado
Ġloc os
Ġusar la
Ġf in
z ul
Ġver Ã©
Ġsus ur
HabÃŃa n
P uso
Ayu den
Ġsimi lar
Ġhar emos
Ġca erse
Ġmayor es
Ġlej ano
Ġton tas
Ġcuidados a
Ġb Ã¡s
Ġdemasia da
Ġesc olar
vÃŃd elo
c ri
ĠA n
Ġevi dente
Ġaho gado
Ġre vis
D ing
Va ya
ta das
T arzÃ¡n
reg Ã³
Ġvenda je
Ġpregun tÃ©
Al gun
vis te
Ġsaltaba n
Ġver ÃŃa
ĠsÃ¡ndwi ches
Ġci elos
Ġguar da
ier as
Ġtra ÃŃdo
Ġvi d
ĠÃºlti mas
Ġromp iera
ven ida
Ġma yo
Ġaten ta
ri do
Ġvi vieron
Ġpega da
Ġasus to
Ġti raron
ĠpÃ¡g inas
Ġayu de
Ġgri taba
Ġf u
ĠartÃŃs tico
Ġjug aran
dar on
ĠP regun
Ġde bo
d ero
Ġsalu do
R ojo
Ġgusta do
ĠEmp ezÃ³
ĠEncon trÃ³
Ġsol tera
Ġjira fas
ĠP as
Ġgolpe ando
Ġfrijo l
T ienen
ĠLle garon
Ġlla mas
ta los
Ġdistin ta
Ġlimpi aron
So Ã±Ã³
in i
Ġredon dos
D ÃŃa
Ġcla ras
ca pa
Ġrespe to
ci ona
Ġprome tiÃ³
Ġasombros a
f ini
Ġpres ente
Ġcorra l
Ġter cera
Ġembaraz oso
U f
Ġsacar la
S a
Ca yÃ³
ĠpÃ© talos
Ġj ulio
Ġmi tad
Ġdiverti mos
Ġsor bo
Ġenam orados
ĠclÃ¡s ico
Ġdeli ca
Ġpri vado
Ġp ÃŃo
Ġdesesp erado
Ġs ir
Ġfu tu
Ġverdad eros
Ġfutu ro
te te
Ġmod erno
Ġir te
in Ã©
ĠNo el
Ġesper aron
!" !
Ġpobre cito
Ġcreer lo
Ġhomb res
Ġsuspen dido
Ġru bia
Ġhue co
Ġm ere
Ġayuda ban
Ġras gu
Beb Ã©
z an
Ġ Ġ
in k
Ġfo ga
pres as
Al lÃŃ
ez amos
Ġm orado
Ġtoc ara
Ġpeg ues
Ġcie ga
ĠS queak
r illa
Ġherramien tas
Ġpro gra
Ġcolumpiar me
Ġmaravillos as
Ġsor presas
Ġsonre ÃŃa
ĠAm bas
D amos
Ġpref er
c el
Hici mos
ĠJ untas
Ġcui dando
Ġmane jar
Ġbal de
Ġdeb erÃŃas
R ec
Ġtramp a
Ġingeni oso
ĠJuan ita
Ġfoga ta
Ġpermi so
Ġfun ciona
ĠsimpÃ¡ tica
ĠJ esucristo
Ġencen dida
Ġenter as
Ġpla na
Ġmo Ã±o
a cto
es os
Ġimag inado
la res
Ã¡ b
Ġadelan tado
da vÃŃa
Ġpa cÃŃfico
Ġtan que
Ġrevis Ã³
S igue
vi mos
ĠoÃŃ do
Ġlleg ando
jar on
Ġdespi dieron
Ġcui do
Ġmi gas
Ġcru zar
Ġle yeron
ĠLle vaba
Hablar Ã©
Ġo bede
Ġan g
Ġaf errÃ³
Ġayudar les
Ġsab roso
ĠFin n
Ġin capa
Ġlav a
Ãģ brela
ra dos
Ġterm inar
Ġvar ias
Ġbara tos
Ġmaul laba
Ġd Ã³
Ġjus ta
Ġmis mas
Ġde fini
Gan Ã©
ĠMa Ã±ana
Ġsal idas
ĠpaÃ± uelo
H ue
ĠSo Ã±
Ġg irÃ³
uÃ© vete
Ġalum nos
Ġpol vo
Ġconf iar
Ã¡b lame
Ġmoja dos
Ġdeja ba
Ġba jando
Ġ Us
Ġus aron
ĠDeb emos
H ora
ĠR ec
Ġsien ten
Ġson ar
ĠEmp u
Ġcuer nos
d amos
Ġse gui
Ġman tuvo
Ġpu ros
PerdÃ³n eme
Ġenten der
R om
Ġorden ado
Ġvid rio
P UM
Ġmer cado
ĠMa teo
Ġ risas
ter ior
Ġcor tado
Ġmover lo
Ġgas tado
Ġregres a
Com o
Ġrebota r
an es
Ġluch ar
Ġc uesta
Ġdeci dido
Ġincapa z
ven il
Ġca deras
Ġsa co
ĠÃŃnti mo
Pod ÃŃan
Ġprogra ma
Ġsub ÃŃa
Ġpedir le
Ġme ter
ĠrÃ¡p idas
Ġgol pes
Le vÃ¡ntate
Ġju venil
Ġintens o
Ġa rb
Ġtran quilos
Ġ K
SabÃŃa s
Ġllo raron
Ġtobog anes
Ġterm inaron
Pon lo
Ġgan ado
Ġc ep
ĠM ar
Ġardilla s
Com emos
Ġreco g
Ġref le
P ensÃ³
Ġcruj ientes
MÃŃra te
Ol vi
Ġfamos os
Ġlog rado
ĠtÃŃp ico
Ġtela raÃ±a
Ġri n
Ġdormi dos
Ġperd idos
Lle garon
QuÃ© date
Ġmad res
Ġp uen
Ġtur n
M uÃ©vete
Ġcontes tÃ³
it Ã¡n
Ġerro res
las h
Ġpara dos
cas te
Ġchar cos
Son aba
Ġmel ena
Ġsi ren
Ġantigu o
ÃŃste te
Ġacerca ba
Ġcerra dos
Ġperfec tos
Ġcre cÃŃa
Ġdivir tiendo
Ġcap itÃ¡n
Ġvar ita
Ġsos tener
c alo
Ġenfer mos
Ġgu apa
ĠP od
Ġarreg lada
Ol vÃŃdelo
Ã¡ta lo
j ug
Ġrec up
k i
ĠP rimero
P ronto
Ġv ictoria
Ġse x
Ġtom as
d ia
Ġta ma
s intiÃ³
ĠJ ulio
di mos
ĠPregun tÃ³
ĠG ri
Ġencontra ste
u zz
p lash
Ġgraci osa
Ġempu jÃ³n
Ll uvia
Ġhay as
Per diste
G ru
Ġconoc ÃŃa
Cuidar Ã©
Ġpuen te
Ġpare cido
ĠsentÃŃa n
Ġartifici ales
v ada
Ġpapel es
ĠreÃŃ mos
Gan arÃ©
Ġac tiva
ĠBus ca
y era
Ġma Ãºl
D uele
ĠOl vi
er na
Ġpreocup Ã³
Ġestuvi eron
P epe
P uf
Ġhabla ban
Ġprincip io
Ġmargar itas
Ġguar dado
Ġavi ones
t Ãº
ĠMi raron
Ġde bido
Ġpregun taron
Ġgem elo
Ġmor ir
Ġencan taron
Ġama do
Ġpreocup ara
ar te
Ġque m
b res
Ġcristi ano
Ġapa gada
Ġbi b
ĠP ens
Ġpa gÃ³
Ġconoc iÃ³
Ġarras tra
Ġno vio
Ġcambi ado
ĠNeces itas
j Ã©
Ġolvidar ÃŃa
ĠB o
Ġmen udo
uvi eron
Ġsentir te
Ġpanque que
Ġra yos
gu al
ÃŃ mos
Ġgrita ndo
Ġmad ura
Ġca vÃ³
Ġsaluda bles
Ġpin tado
Ġpata ta
Much o
Ã± anas
es cuchÃ³
Ġrespon de
Ġquema da
Ġme tal
Ġmor dis
Ġexcel entes
ĠT ienen
Ġencen der
ĠHa ce
Ġlam er
B uena
M an
ar emos
Ġsen timos
Ġapar e
Ġenoja das
Bus quen
Ġam an
Nos otros
ĠdecÃŃa n
Ol ÃŃa
Ġha z
Mi rÃ¡
Ġcier tas
Ġara Ã±Ã³
M aria
Ġtermina da
Ġjug osa
Ġran as
Ġbalance aba
Ġcuer das
Ġbo om
Ġfue nte
ĠvÃŃbora s
j Ã¡
Ġser ÃŃan
P udo
Ġu va
ĠÃºtil es
Ġadiv inar
cul pa
Ġquis iera
Ġdi gas
Ġsalu d
Ġcreci endo
Ġecon Ã³mico
Ġinten ta
Ġestar Ã©
Ġesp inas
P ido
Ġsuper fici
Dormi r
en o
Ġtrabajar on
Ġsuper ior
ien tos
Ġpus e
Ġdemasia dos
H Ã¡blame
Ġman ten
Ġhue l
st oso
Podr Ã©
Ġami stoso
So p
Ġpus imos
c tos
Ġu til
Ġlleg amos
Ġlla n
Ġrefle jo
Pare ce
Ġhun diÃ³
Ġgru po
ba na
ĠAyu dÃ³
Ġverdad era
Regres arÃ©
O tra
Ġma Ã±anas
Ġvom itar
ĠP ico
Ġdestro zado
Ġinf an
ar me
A jÃ¡
Ġsex to
G al
ĠLu cas
t ÃŃn
Tran quila
Ġperfec tas
Ġhabita ciones
ĠLl ueve
Ġameric ana
Ġpi ca
ill y
Ã©c tar
Ġrecup er
T Ã³
Ġmar cado
Ġmed ia
S ofia
ĠbaÃ± arse
Ġsegu ras
s elo
Ġ 3
ĠmÃ¡ ximo
D ile
Ġn Ã©ctar
Ġdisfru taba
Ġser Ã¡n
Ġnada ban
V ÃŃstete
Deb erÃŃa
Ġsal ÃŃa
Ġpele en
Ġpas as
ĠCom e
ÃŃ melo
P ien
Ġti c
Ġbus can
Encontra ron
to Ã±o
Ġmezc lÃ³
Ġescuch ado
Ġfavor itas
Ġbalance arse
rÃ¡ elo
La d
Ġbeb ÃŃa
Ġapa gado
ot es
ui do
Ġencontra ba
B e
Ġo toÃ±o
ĠvivÃŃa mos
Ġestup ido
Ġponer te
ĠpodrÃŃa n
Ġapro bado
Ġdisfru tÃ³
Ġpracti cÃ³
ĠS entÃŃa
Ġextraord inar
ig otes
Can taba
a ras
ĠD oÃ±a
ora das
Ġprefer ido
ep ito
u par
Ġent regÃ³
Ġtar des
Qu ack
Ġten edor
Ġcam b
car se
Ġjugar ÃŃan
ĠJ ue
Ġcom an
Ġlle vo
San ta
Ġtravi esos
Ġha go
Ġzum ba
ĠCam inaba
Ġinfan til
** .
O ÃŃste
m bÃ³
Ġanti guas
Ġca i
ĠM ientras
S iento
Bien venido
Ġquitar le
Ġcen aron
Ġtemb lar
Ġdon g
Ġcere zas
Ġcaer Ã¡
ĠJue gan
A n
Escuch a
Ġca laba
g ale
Ġgraci a
Rec uerda
Ġprofun da
Ġronrone a
En tra
ĠmaÃºl la
ĠH ab
Ġmostrar le
Ġjug osas
Ġcans a
ĠDes de
Ġvola ra
Ġorgullos os
Ser ÃŃa
ĠF uimos
Bus camos
ĠJugar ÃŃan
ho w
Ġcua dra
Ġsalu dar
Ġci u
Ġs how
H as
Ġcuidar se
Ġpel eado
Ġhab las
Ġa tada
Ġinoc entes
Ġcas era
ĠespaÃ±ol es
m uch
Ġcalen tÃ³
Ġcom ieras
Ġcer raron
ĠenseÃ±ar te
Ġtener la
ĠmÃ¡ xima
C ierra
Ġcalce tÃŃn
Ġga vio
ĠT us
Ġencontra remos
Ġestaba s
Ġlla mo
Ġciu dad
Ġd erra
ue las
Ġves tir
Ġser ios
Ġchis tos
Ġcar re
Ġllan to
bu m
Ġmor ena
Ġatrap aba
ues os
Ġb igotes
Ġllo vÃŃa
D ales
es toy
C l
Ãº me
ĠEs tÃ¡s
Ġapren diendo
Ġtruen os
D ÃŃmelo
Ġh Ãºme
Ġpa ÃŃs
Ġpasar Ã¡
Ġpi can
Ġfor zado
Ġ Gracias
Ġcomer emos
Ġayud ante
ve mos
rac k
Ġprepa rando
Ġquedar me
Ġcom emos
Ġc abÃŃa
Ġvuel ven
Mmm m
Mi ren
Ġpin cel
Ġinfor mado
Ġpico te
Ġbaja ba
Ġdeja ra
Ġpa tada
ĠTom aron
Ġor uga
Ġcom imos
ĠC errÃ³
Ġmovi Ã©ndose
Ġcuidar te
Ġhace mos
Ġacab Ã³
Ġizquier da
Ġpo bres
Ġvis tiÃ³
Ġar ru
Ġtama Ã±o
Ġabrazar lo
Ġsal iera
ĠSabÃŃa n
Ġdesapare cer
Haz le
ca yÃ³
bable mente
Ġros ado
SÃ¡ calo
Ġap esta
in illa
Ġjar ra
Ġdij era
Ġgas ol
Ġpati ta
Ġpue das
ĠTenÃŃa mos
car Ã©
Ġele vÃ³
Ġestar ÃŃan
ĠDe ci
Ġchoc Ã³
Ġperdon ado
Ġprop ios
Ġpin turas
amÃ¡ s
Ġcolump i
Jugar emos
Ġat erra
ĠPue den
Ġextraord inario
Ġva inilla
Ã¡ rate
Bien venidos
Ġ *
Ġj amÃ¡s
ĠMuch as
Ġten ga
Ġcla ros
C al
Ġabier tos
A tra
Ġescond idos
Ġlla m
ĠI ba
Ġloc al
Ġcre cen
Ġsop la
Ġplan tar
Ġcalen tar
me dia
Ġinse ctos
i cÃ³
le tas
Ġgraci osos
ĠmÃ¡ quina
Ġexpl otÃ³
Ġdomin gos
oc upar
Ġpre ocupar
os e
Qui tes
ĠM Ã¡s
Ġllevar me
son Ã³
? !"
Ġto que
Jug uÃ©
Di jo
Ġcla vo
j era
Ġpoderos os
v Ã©s
ĠEmpu jÃ³
Ġcuen co
es tÃ¡
Ġmordis co
Tom amos
Ġconstru yendo
Ġas ientos
Ġgor das
Ġcambi an
Ġhones tos
Ġan do
Ġayudar emos
Ġamor osa
Ġsil bido
L la
Ġcaracol es
Dis culpa
Ġsegui do
ĠDe jÃ³
ĠC ara
co g
R e
Ġen ga
Ġningun o
Ġdis cu
Ġhacer me
Ġbes ar
ĠsoÃ± Ã©
Ġconoc ido
Algun os
Duer mes
ĠenseÃ±ar me
Ġgra ves
ĠRec ordÃ³
Ap estas
Ġang el
Ġdeja do
Ġt Ã©
Ġposi tiva
Ġfi jo
Ġposi bles
ĠBo bo
ĠO tro
ti cos
z t
Ġturn aron
D ilo
N a
Ġcer rar
Ġgr uesos
Ġgiraba n
Ġvolver ÃŃan
Ġsusur rÃ³
Ġdefini tiva
Ġcomp ro
LlÃ©v alo
Ġhe chas
Ġmi au
Ġsonr ÃŃ
o yÃ³
C oc
Ġcreci eron
T res
Ġun ido
da des
Ġpe d
Ġcasa do
ĠAl go
Ã© gale
Ġsentar nos
Ġinvi tar
Ġfuncion Ã³
Ġdes eado
g racias
Ġgran o
Ġag itÃ³
Ġapla uso
l lo
Ġcolor ido
Ġestu diÃ³
Ġcompar tido
Ġcos tarÃ¡
Com ÃŃ
ĠJ ack
Ġd oradas
cita ciones
Apa guen
T on
Ġenf ri
ĠSam my
od ici
ĠLlo raba
Ġc odici
Ġfui ste
ĠT irÃ³
Ġcrea tiva
Dormi ste
Ġmej illa
Car ro
Ġqui tarse
ĠcaÃŃ ste
Ġcol oca
ĠP in
Ġsub iendo
Ġdelica das
Ġcompartir la
ĠC re
Ġcamb io
us ieron
ĠPor que
Ġse cas
ĠcaÃŃ da
Ġprim eras
Ġp uch
vi eran
ĠvenÃŃa n
Ġan z
Ch irp
Ġm ÃŃn
Ġdi go
Pon go
Ġjugar Ã©
ĠR egres
ĠextraÃ± Ã©
Ġus an
Ã± Ã©
Ġboc ado
w ee
V iste
Ġcier tos
Ġpreci sa
Ġcebol las
Ġf la
es to
M Ã¡talo
Ġanz uelo
Ġsen timiento
Ġp ila
ir Ã©
Ġsentar me
ĠautÃ©n tica
ba dos
Much a
Vuel vo
ĠH oy
Ġfiel es
ĠautÃ©n tico
ri mos
Ġarb usto
G ri
S plash
Ġasus tarse
Neces itaba
ĠEncon traron
R esp
Ġrevolo teÃ³
A bre
c ab
Ġlan zaron
Ġgri tos
Ġdel ga
Ġagar ra
tas te
Ġllevar se
Ha go
te aba
Ġsecre tos
Ġm uestra
Ġdesliz aron
ĠLle vÃ³
wee t
Pas tel
en cio
Y um
Ġcre z
Ġen vol
Ġas pe
Ġzum bido
Ġaspe cto
e ar
Ġcontar Ã©
Ġextraordinar ia
Ġg uan
Tu ve
Pel usa
ĠA quÃŃ
Ġir ÃŃa
Ġapre tada
Ġescond erte
i giÃ³
Ġdel f
va la
l io
Ġneces aria
R ex
Ġmas ticaba
ci onada
Ġenoja ra
Ġco ge
lio te
Ġdecep cionada
Ġbib liote
Ġpie zas
Ġconocer lo
bi mos
Ġdivir ti
en ta
ro bablemente
Ġrasgu Ã±o
E x
Ġmor dÃŃa
R a
Ġin media
Ġflota r
in amos
ĠN adÃ³
Ġg asta
Ġcor tada
Ġan un
Ġgan Ã©
Ġtos iÃ³
T rÃ¡elo
Baila ba
Ġcuidar on
l ido
ma ra
Ġplan tÃ³
Ġha ga
Ġcoc os
Ġense Ã±a
ĠT o
Tra igo
ĠR ose
Ayudar Ã¡s
Pens amos
ola ron
Hab las
Ġgri taban
P Ã©gale
Ġdiam antes
Ġsuperfici al
as tre
Ġtom es
Ġvi ol
Ġhabla ra
Ġmuev en
Ġmaravillos a
Ġne vera
ĠM o
ĠI mag
Ġderra mÃ³
Ġblan do
Ġcu rar
a a
Ġrode ados
ic ales
Ġdes astre
Ġsab ia
Ġpatear la
ĠL imp
ĠAm y
Apren dieron
Lle gamos
Hue les
Cu Ã¡n
Ġjo yas
Ġsalp icÃ³
Com ieron
Ġconoc e
Ġprepa rados
Ġescon den
Ġacer carse
Ġapes taba
s us
Inten ta
Hab la
s ab
Ġestup en
Ġcuida dor
Encontra mos
ĠP ronto
Ġba ya
Ġhor ne
Ġescri be
Ġescon des
Ġestar Ã¡s
Ġde t
Ġqui ta
Ġpele ando
Ġac ci
i bles
ran de
Ġhe ch
Ġfri ta
ĠSon aba
Ġmol esta
Ġal i
Ġbes aba
Ġtar ro
ĠD io
Ġcuidar Ã¡
Ġdol ÃŃan
Ġser Ã©
Ġconver tir
Ġme tas
Ġl ina
Ġcerd itos
Ġanun cio
Es cri
Ġhici mos
ĠsonrÃŃ en
Ġpele a
ĠComp raron
Ġsol e
Ġcere za
Ġpro bable
Ġreg las
Ġluch aron
Ġbien venido
ĠEs cuch
Ġla dÃ³
Ġluch a
ĠextraÃ± aba
Ġimpor tÃ³
Ġpa Ã±o
Ġderri tiÃ³
Ġre bana
Ġban deras
Ġestrope ada
Ġarreglar las
Ġlu ci
C rack
Ġdejar lo
Ġguan tes
Ġestar Ã¡n
Ġtra vÃ©s
Ġaten tos
Ġav erg
f or
Ġel igiÃ³
c l
Ha ce
Ġgasol ina
S hh
ĠdÃ³ lar
Ġme tieron
eg Ã³
Ġaverg on
Ġcambi a
Ġtom ada
ĠOlvi dÃ³
Ġcubier to
ĠM is
Comp ramos
Ġusar lo
Ġcar gÃ³
Ġcondu cÃŃa
Ġca yera
Zzz zt
d idos
Ġmere cido
ĠV a
a daron
Ġlleg an
Ġson aban
Ġven dÃŃa
div ina
Ġdeb ÃŃan
Ġdorm ÃŃan
Ġesc up
Ġtoc as
Ġmaravillos os
ĠSoÃ± aba
f ic
Le e
Ġentra ba
Ġpin zas
Ġarti sta
Ġgus ten
ĠsÃ¡ bados
ĠV iÃ³
Ġam bas
Ġbus camos
d remos
Un os
Ġalimen tar
a te
Ã³mi ca
Ġhech izo
Ġesc uelas
R odÃ³
ĠNeces itamos
Ġla tÃŃa
Ġhacer le
Ġla diÃ³
Ġfl otÃ³
Ġescuch Ã©
C aba
c uen
Ġt Ãºn
Ġoscu ros
Ha gamos
Ayu dÃ³
ĠUs Ã³
Ġpi caron
Ġex acto
Ġcompra ra
Ġtra igo
sol o
Ġbara tas
ĠR a
Ġcomp leta
Ġruidos as
Ġsal ida
ĠR e
Ġba m
Ġrodar on
Ja ja
ra zÃ³n
Ġtra erÃŃa
O O
Ġba jos
Ġsal to
Ġprim eros
cida des
Ġle ch
ĠA zul
ĠcompartÃŃa n
Ġvolver Ã©
Ġcl uck
ĠpÃ¡g ina
Ġinteres antes
Ġcalaba za
Ġcomer ÃŃa
Ġvuel va
Ġcapa razÃ³n
Cl uck
Ġdivertir te
ĠV en
Ġmo viera
Ġjugue mos
Ġcan tas
Feli citaciones
ĠestÃºp idas
Ġsal var
Ġta zas
ĠAb uela
Ġg las
Ven gan
Ġgran os
Ġven drÃ¡
Ġp ones
Feli cidades
Ġgeme la
Ġsig no
Ġgusta ra
Ġcelebrar lo
ĠS omos
ĠDeci diÃ³
Fui ste
ĠB illy
o che
Comer emos
C as
Ġglas eado
Ġrec uer
Ġcre ce
ĠJugar Ã³n
Ġsinti Ã©ndose
Ġbrilla n
esp era
Ġprincip ales
Ġpati tos
Ġexacta mente
Ġcomer me
Ġpers igue
Ġescuchar lo
Ġgolpe es
ĠNeces ito
Ġti rÃ³n
Ġmoles tar
ĠhÃºme da
Ġbalance aron
F lores
Ġfemen ino
Ġale jar
Ġpa ja
Miau uu
Ġesc rito
Ġde jas
Ġsubir me
ti c
Ġatrapar los
Ġmad u
Ġaven turas
Ġarreglar la
Ġam amos
Ġpobre cita
ue ba
Ġcu rÃ³
Ġt ri
Bus cÃ³
Ã¡r selo
Comer Ã©
uel en
EstÃ¡ bamos
Emp ezÃ³
Ġsab emos
o om
Ġson risas
Ġa cog
Ġto quen
ĠG atito
es te
Ġfemen ina
ĠR odÃ³
Ġcodici oso
Ġarrastra ba
il le
C ada
Ġll uvi
Ġsorpren dieron
Ġpondr Ã¡s
ĠSue Ã±a
Ġesca lar
o p
Emp u
Ġman eras
Ġsed iento
Ġflo jo
Ġ 1
orm es
ja ba
Ġllev ado
Ã©r na
Ġprac ticaba
Ġbrin cÃ³
Man z
Ġdejar ÃŃa
Ġduer mes
' !"
Ġtro mb
Ġluci Ã©rna
Ġo fre
Ġpro pÃ³
ĠpropÃ³ sito
T ruen
Ġte c
Ġusar los
ĠBus camos
Ġfuer zas
Ġcab ras
Emp ezamos
Ġven dedor
Ġesta n
Ġencuen t
Ġescri ta
Ġorden ada
Ġcui dan
Ġsalta n
Ġpreci osos
Ġbien venida
Ġcuida ban
ene a
Ġdesapare ci
ĠL ana
Ġatrapar las
Ġafort una
ter ÃŃa
rilla ba
ĠP usieron
Ġmenor es
Ġsan dÃŃa
Ġvis te
Ġenvol viÃ³
Ġprote giÃ³
Ġa ro
N iÃ±o
Ġs ar
Ġtomar la
Ġabri gos
O sito
Ġch im
f o
C ara
ter ÃŃas
Ġpreocupar se
i ki
Ġencen dido
Ġsol tar
Ġab rÃŃa
Ġcoger lo
ĠmÃŃn imo
Ġlech uga
ta zo
Ġcerd ito
Ġchim enea
Ġcuidar los
Sal iÃ³
Ġagrade ciÃ³
Ġver emos
Ġcoger la
Ã ¼
en con
Ġmoja das
ĠMia u
ĠLe e
Ġdoc to
ĠenseÃ±ar le
Ġdij iste
Ġabsolu ta
Ġe di
Ġtromb Ã³n
Ab ra
Ġtoca ras
ti na
Juan ita
Ġvi eran
k er
Ġloc ales
g Ã¼
Ġdibu jando
Ġchu la
er en
D oÃ±a
Ġdol er
Ġin s
ĠLlo vÃŃa
Ġhambri entos
Ġagu ja
Ġsu je
Ġcuida ra
Ġpondr Ã¡
Ġcie gos
Ġmue ca
Ġhuel en
ma ba
Ã© tete
z ando
Ġt ina
c lo
Ġmaul lido
Ġgru Ã±e
l l
Ġproteger Ã©
ĠCom ÃŃa
Ġen ormes
Ġsup iera
Ġlevantar la
Ġsar tÃ©n
âĢĭ âĢĭ
Ġ âĢĭâĢĭ
ĠseÃ±a lando
ĠEs tos
ĠVe ÃŃan
Ġsecar se
Qui eren
Cui da
Ġcom a
Z oom
ug as
Ġcen Ã³
Ġmorder lo
Ġtra en
Ġo ÃŃa
Ġtraer Ã©
ĠT raba
ĠD orm
ĠS intiÃ³
Ġespe cÃŃfico
j amos
on do
es e
Ġalgun a
Ġtraba jan
Ġpro bado
Ġdesper taron
Ġvi viÃ³
Ġnie to
Ġmod erna
Ġperdon ar
Ġlame tazo
Ġcol gÃ³
Ġense Ã±o
Ġconten tas
Ã± ar
Ġvi vas
Ġqui tes
Ġdiscu tieron
Bus ca
L imp
ĠB ella
gu ÃŃa
ĠNavi dades
ĠtÃºn el
que mos
Ġencontra ra
Ġrug ido
Vol ver
J untas
Ġcu b
ob y
b ÃŃa
Ġca var
Ġsentar te
LlÃ© vala
Ġ ren
Ġf ondo
Ġve te
ĠoÃŃr lo
Sa carÃ©
i va
Ġasus tÃ©
Ġcuidar las
Ġus es
Cu Ã¡l
Ġper ten
Ġper se
Ġcuar ta
r ÃŃe
Ġpa t
ĠK ate
Ġver Ã¡s
Ġemocion ados
ĠPin tÃ³
Es con
tor nu
g aba
Ġdescan s
Ġgolos ina
Jue gan
Ġayudar los
Ġayudar le
Ġromp ÃŃ
Ġpod ri
vo y
Ġped ale
Ġdesapare cieron
ĠPa pa
Ġcontar te
Ġpuch ero
Ġrode ado
Ġayud Ã©
Neces ita
ĠPod ÃŃan
Ġlluvi oso
ĠT weet
M Ã©tete
S en
Ġs anos
Ġh as
ĠtenÃŃa s
Ġdij imos
ĠS ab
Ġpon te
ĠJug uÃ©
Ġmen tal
ĠD uer
om p
Ġjug ada
Ġsen taba
Ġfuncion ar
c tor
p ido
Ġven der
ie zan
ĠNeces itaba
Ġcuidar la
Ġdivertir nos
Ġqui era
ĠEs as
Ġde ten
Ġpin taron
ĠÃºlti mos
Ġflota dor
Ġlimpiar lo
Ġsil encio
Ġresbala d
Ġingeni osa
Ġpu de
Ġregres arÃŃa
Ġsin o
Ġlasti mada
q uerÃŃa
Lle gÃ³
Ġtec las
gre d
in e
Ġmora das
Ġin gred
Ġqu ack
ue tes
Ġpas ando
Ġllen aron
s al
Ġde tener
G u
Jug aba
Ġobede ciÃ³
u bo
Pas aron
Ġpe cho
Ġsen tido
Ġam aron
Ġsacar on
Ġrespon dieron
er ÃŃan
Ġcon ge
Ġabsolu to
Pobre cita
Ġasusta n
Ġcruj iente
ĠR esp
Pobre cito
Ġdisfraz ado
Ġasquer osas
Ġllevar ÃŃa
Ġsu bas
Ġcuadra do
Ġpon erme
Ġquitar te
Ġbi ch
Ġatas cÃ³
ÃŃ na
Ġcon oz
Ġtrabaja ba
pa Ã±a
ĠTom a
Ġgrandi osa
Ġas iente
ĠgruÃ± Ã³n
ti vas
Tan tos
Hici ste
Ġsen tamos
ĠNeces ita
qui Ã©n
Ġprofun damente
Ġpue sta
Ġcar gar
Ġav is
Ġcans adas
Ġenf riÃ³
Ġsub ÃŃ
Ġin terior
z ame
Ġpasa das
Ġenferm ar
bri r
Ġ W
Ġcor te
Beb e
Ġdese Ã³
Ġsa lada
Ġprobar lo
i raba
Ġtom ando
Ġlevan tado
ĠImag inÃ³
Ġbos te
Ġllevar Ã¡
Ġlimpiar la
que l
Wo o
Ġse cos
Ġdesliz arse
Ġlami endo
Ġpar tiÃ³
N uestra
Ġpon iendo
rÃ¡ zame
Ġsag rado
eni al
Ġme t
Ġcin tas
MÃŃra la
Ġins is
F i
Ġdi ces
ĠGri taron
To davÃŃa
Ġpas arÃŃa
Ġofre ciÃ³
ero ÃŃna
Ġan dan
Â¡ "
Ġb or
Ġta les
Ġgener osa
Ġtro zos
ti vos
Ġde jes
Ġac or
Ġcump l
ĠCom o
M on
Ġpar eciÃ³
Ġlad rido
Ġllev aban
Ġquis ieron
T ira
Ġmi ro
Ã¡n dose
B R
Ġllev ando
Ġafila do
Ġinvis ibles
Ġc Ã³
y es
Ġmostra ba
Ġcocodr ilos
Ġintelig entes
Pa t
Ġingred ientes
Ġs anas
Ġdiverti ste
Ġolfa te
Lle va
ĠEs tas
ĠbÃ¡s ico
Ġfuncion aba
Ġma tar
fic io
A cab
Ġconstru ye
V emos
Encontra remos
Ġresbaladilla s
P i
Ġra pido
Ġsuficiente mente
Ġapare cer
ĠB uzz
B OO
Ġencontrar los
k y
ca ras
Ġedi ficio
Ġboc ina
Ġin v
Pel e
H aremos
Sal tar
Ã¡ndo lo
ĠAn da
ĠDe bajo
P Ã¡rate
to c
Ġperd idas
h is
Ġ Inten
Ġcocin aba
Ġsacar Ã©
Ġgavio ta
Ġhacer las
Ġromp erse
: **
R o
ma la
Ġlad r
Ġsole ada
l y
Ġllev ara
Ġvista zo
se la
Ġamar go
Ġinmedia to
G enial
t ente
Ġlav ado
Podr Ã¡s
Ġ Ã¡s
ol pe
Ġcolor ear
' ".
ĠOl ÃŃa
A zul
B ar
Ġhacer les
d ÃŃan
P elig
Ġve a
Ġpin tando
So Ã±Ã©
Sab rÃ¡s
Ġdisfru ta
ker s
Ġac tivo
Ġesper amos
O tros
la us
ig nifica
Ġpes ca
N ues
Ġllega ra
ro mp
Ġcal ma
ĠDe cÃŃa
I mag
t h
Ġalcan zÃ³
Ġ ĠĠĊ
Ġay er
Ġsiren as
h es
Ġolvi dÃ©
Ġt oco
Ġbibliote ca
du vo
Ġali vi
Ġad hes
Ġatrapar Ã©
Ġquema ba
ĠS mi
Ġatrap es
ĠSmi th
Ġgui Ã±o
Ġmer eces
Ġadhes iva
ĠD ame
Ã© v
Gru Ã±
o ps
Ġcom ete
Ġtra jeron
Ġleer lo
his kers
ĠHabÃŃa n
Ġcuidar me
Ġpes ar
Sop la
Ġcu Ã¡ndo
Ġestan que
O ink
Ġquedar nos
Ġv ÃŃas
Ġcep illo
Ġcui das
Ġneces ar
Apa ga
Ġesca p
Ġcarre tera
Ġen re
Vuel vas
Ġpeor es
B al
T ic
Ġjueg uen
Ġsalu dos
Ġpue dan
Ġmal vada
Jue gas
Encontra ste
le Ã³
Ġasustar te
Esper Ã³
ĠH ici
Ġven drÃŃa
Ġap ilÃ³
Ġganas te
Ġd amos
Ġpele an
sab es
Ġavergon zado
Ġresp uesta
Ġrug ir
Bus co
Term inas
P e
Ġusar las
Ġh eroÃŃna
ten emos
ĠBa jÃ³
g h
Ġcer c
Ġtam ba
Pa pa
Pa gamos
d idas
Ġdorm ÃŃ
Lle vamos
Ġcal ien
Ġaterra dor
cÃŃf ica
Ġpoderos as
Ġutil iz
P es
A be
M ar
Ġgus tos
edo ra
pa de
Ġempujar lo
ĠdÃ© jame
Ġdeb erÃŃan
Ġizquier do
Ġalcanzar los
Ġmuev as
Ġsa caste
Ġdesper tarse
A unque
To quen
Ġpar che
Ġra mi
Ġesper as
Term inÃ©
ĠartÃŃs tica
Ġpuntiagu do
Ġlasti ma
Ġinsis tiÃ³
rÃ³ col
Ġpar pade
Ġterm inas
Ġllo viÃ³
ras te
Ġgorila s
Ġmar cas
Ġreg Ã³
ĠmuÃ±e cos
Ġequi po
Que date
ĠcrecÃŃa n
c ui
Ġponer le
Ġch iqui
Ġmira ban
Ġexpl icar
Ġb rÃ³col
Ġmi r
Ser p
Ġapren den
