{"!":0,"\"":1,"#":2,"$":3,"%":4,"&":5,"'":6,"(":7,")":8,"*":9,"+":10,",":11,"-":12,".":13,"/":14,"0":15,"1":16,"2":17,"3":18,"4":19,"5":20,"6":21,"7":22,"8":23,"9":24,":":25,";":26,"<":27,"=":28,">":29,"?":30,"@":31,"A":32,"B":33,"C":34,"D":35,"E":36,"F":37,"G":38,"H":39,"I":40,"J":41,"K":42,"L":43,"M":44,"N":45,"O":46,"P":47,"Q":48,"R":49,"S":50,"T":51,"U":52,"V":53,"W":54,"X":55,"Y":56,"Z":57,"[":58,"\\":59,"]":60,"^":61,"_":62,"`":63,"a":64,"b":65,"c":66,"d":67,"e":68,"f":69,"g":70,"h":71,"i":72,"j":73,"k":74,"l":75,"m":76,"n":77,"o":78,"p":79,"q":80,"r":81,"s":82,"t":83,"u":84,"v":85,"w":86,"x":87,"y":88,"z":89,"{":90,"|":91,"}":92,"~":93,"¡":94,"¢":95,"£":96,"¤":97,"¥":98,"¦":99,"§":100,"¨":101,"©":102,"ª":103,"«":104,"¬":105,"®":106,"¯":107,"°":108,"±":109,"²":110,"³":111,"´":112,"µ":113,"¶":114,"·":115,"¸":116,"¹":117,"º":118,"»":119,"¼":120,"½":121,"¾":122,"¿":123,"À":124,"Á":125,"Â":126,"Ã":127,"Ä":128,"Å":129,"Æ":130,"Ç":131,"È":132,"É":133,"Ê":134,"Ë":135,"Ì":136,"Í":137,"Î":138,"Ï":139,"Ð":140,"Ñ":141,"Ò":142,"Ó":143,"Ô":144,"Õ":145,"Ö":146,"×":147,"Ø":148,"Ù":149,"Ú":150,"Û":151,"Ü":152,"Ý":153,"Þ":154,"ß":155,"à":156,"á":157,"â":158,"ã":159,"ä":160,"å":161,"æ":162,"ç":163,"è":164,"é":165,"ê":166,"ë":167,"ì":168,"í":169,"î":170,"ï":171,"ð":172,"ñ":173,"ò":174,"ó":175,"ô":176,"õ":177,"ö":178,"÷":179,"ø":180,"ù":181,"ú":182,"û":183,"ü":184,"ý":185,"þ":186,"ÿ":187,"Ā":188,"ā":189,"Ă":190,"ă":191,"Ą":192,"ą":193,"Ć":194,"ć":195,"Ĉ":196,"ĉ":197,"Ċ":198,"ċ":199,"Č":200,"č":201,"Ď":202,"ď":203,"Đ":204,"đ":205,"Ē":206,"ē":207,"Ĕ":208,"ĕ":209,"Ė":210,"ė":211,"Ę":212,"ę":213,"Ě":214,"ě":215,"Ĝ":216,"ĝ":217,"Ğ":218,"ğ":219,"Ġ":220,"ġ":221,"Ģ":222,"ģ":223,"Ĥ":224,"ĥ":225,"Ħ":226,"ħ":227,"Ĩ":228,"ĩ":229,"Ī":230,"ī":231,"Ĭ":232,"ĭ":233,"Į":234,"į":235,"İ":236,"ı":237,"Ĳ":238,"ĳ":239,"Ĵ":240,"ĵ":241,"Ķ":242,"ķ":243,"ĸ":244,"Ĺ":245,"ĺ":246,"Ļ":247,"ļ":248,"Ľ":249,"ľ":250,"Ŀ":251,"ŀ":252,"Ł":253,"ł":254,"Ń":255,"Ġe":256,"Ġp":257,"Ġd":258,"Ġs":259,"er":260,"Ġa":261,"la":262,"Ġc":263,"Ã³":264,"ra":265,"ue":266,"Ġm":267,"os":268,"ta":269,"El":270,"Â¡":271,"Ġn":272,"ÃŃ":273,"un":274,"en":275,"Ã±":276,"on":277,"ar":278,"Ã¡":279,"ÃŃa":280,"Ġun":281,"Ġdi":282,"Ġt":283,"ĠEl":284,"Ġ\"":285,"Ġes":286,"ba":287,"jo":288,"Ġl":289,"ĠL":290,"Ġla":291,"ĠÂ¡":292,"Ġg":293,"Ġel":294,"Ġni":295,"ĠniÃ±":296,"ro":297,"el":298,"es":299,"do":300,"ĠĊ":301,"Ġdijo":302,"am":303,"iÃ³":304,"que":305,"Ġy":306,"as":307,"Ġf":308,"taba":309,"Ġj":310,"Ġse":311,"to":312,"Ġv":313,"ug":314,"!\"":315,"Ġmu":316,"il":317,"Ġestaba":318,"ĠniÃ±o":319,"an":320,"om":321,"Ġjug":322,"Ġen":323,"or":324,"Ġsu":325,"te":326,"Ġper":327,"Ġh":328,"Ġ\"Â¡":329,"Ġde":330,"Ġcon":331,"amÃ¡":332,"Ġb":333,"ĠS":334,"re":335,"ran":336,"Ġperro":337,"ily":338,"ri":339,"uer":340,"ch":341,"ot":342,"al":343,"Ġal":344,"Un":345,"ol":346,"de":347,"Ġmuy":348,"Ġq":349,"ĠmamÃ¡":350,"Ġque":351,"Ġno":352,"us":353,"oso":354,"Ġjugar":355,"Ġga":356,"Ġuna":357,"ĠLily":358,"ti":359,"Ġgran":360,"Ġpe":361,"ĠÃ":362,"īl":363,"da":364,"eli":365,"io":366,"Ġera":367,"Ġten":368,"Ġoso":369,"Ġpel":370,"ĠLa":371,"ero":372,"in":373,"pot":374,"ĠÃīl":375,"tÃ³":376,"queÃ±":377,"ĠpequeÃ±":378,"Ġfeli":379,"Ġpa":380,"Ġle":381,"ĠE":382,"uerÃŃa":383,"ma":384,"go":385,"ĠM":386,"riÃ³":387,"ĠtenÃŃa":388,"ota":389,"Ġcom":390,"ĠniÃ±a":391,"Ã©":392,"Ġgrande":393,"ĠquerÃŃa":394,"\".":395,"Ġpelota":396,"ui":397,"Ġgato":398,"Ġfeliz":399,"No":400,"mi":401,"jar":402,"ĠSpot":403,"ris":404,"ab":405,"Ġvio":406,"Ġmuch":407,"ĠElla":408,"Ġro":409,"ĠpequeÃ±o":410,"ĠpÃ¡":411,"ĠpÃ¡jar":412,"Ġtris":413,"oc":414,"Ġfue":415,"Ġtriste":416,"ĠpÃ¡jaro":417,"ci":418,"ĠT":419,"ĠdÃŃa":420,"lo":421,"ien":422,"\",":423,"Ġmi":424,"od":425,"ja":426,"ens":427,"Ġlla":428,"Es":429,"Ġami":430,"Ġson":431,"Ġcam":432,"Ġllama":433,"Ġcas":434,"mp":435,"Ġlos":436,"Ġcor":437,"!\",":438,"Pero":439,"eo":440,"le":441,"ola":442,"abÃŃa":443,"La":444,"Ġca":445,"Ġdiv":446,"ĠB":447,"ces":448,"Ġcasa":449,"rÃ³":450,"Ġre":451,"ĠEra":452,"Ġha":453,"Ã¡s":454,"tiÃ³":455,"Ġve":456,"ax":457,"uan":458,"Ġmucho":459,"Ġta":460,"Ġlas":461,"Ġab":462,"Era":463,"Ġdiver":464,"ca":465,"Ġdiverti":466,"Â¿":467,"uso":468,"na":469,"Una":470,"Ġest":471,"ĠA":472,"it":473,"iÃ³n":474,"ĠTom":475,"ren":476,"uÃ©":477,"diÃ³":478,"eron":479,"!\".":480,"ĠLeo":481,"ĠBen":482,"ila":483,"Ġlo":484,"uev":485,"co":486,"Ġsin":487,"Ġr":488,"tens":489,"Ġpuso":490,"tes":491,"ittens":492,"Ġpre":493,"Ġpara":494,"Ġi":495,"Ġba":496,"Ġpas":497,"Lily":498,"ĠJ":499,"mos":500,"ĠMax":501,"illa":502,"Ġllamado":503,"ĠsintiÃ³":504,"Ġpod":505,"Ġsal":506,"Ã³n":507,"tos":508,"Ġpar":509,"des":510,"uen":511,"ĠPero":512,"Ġpap":513,"Ġsol":514,"Ġqui":515,"Ġgus":516,"gu":517,"yu":518,"Ġdel":519,"Ġfuer":520,"Ġdivertido":521,"ando":522,"ĠpodÃŃa":523,"ora":524,"ente":525,"Ġgati":526,"ĠcorriÃ³":527,"Ġamig":528,"Ġesc":529,"Ġme":530,"De":531,"bre":532,"tas":533,"Ġayu":534,".\"":535,"ĠSu":536,"ce":537,"Ġjugue":538,"ĠsonriÃ³":539,"ul":540,"so":541,"ĠÃ¡":542,"Ġnuev":543,"ĠĠĊ":544,"ĠMittens":545,"Ġra":546,"Ġgatito":547,"âĢ":548,"ĠestÃ¡":549,"Ġamigo":550,"dar":551,"ie":552,"Ġsus":553,"ĠEs":554,"rb":555,"Ġpor":556,"res":557,"pren":558,"Ġenc":559,"Ġcan":560,"Ġpue":561,"ĠpapÃ¡":562,"zo":563,"Ġparque":564,"Ġte":565,"rbol":566,"ĠÃ¡rbol":567,"bi":568,"ĠJuan":569,"esp":570,"Ġcomer":571,"tar":572,"Hola":573,"ĠmÃ¡s":574,"Ġvez":575,"Ġver":576,"Ġamigos":577,"Ġrojo":578,"che":579,"tra":580,"gun":581,"is":582,"Ġpens":583,"MamÃ¡":584,"lor":585,"jos":586,"ĠAna":587,"Ġpero":588,"ten":589,"Ġot":590,"ĠcamiÃ³n":591,"Ġdio":592,"Ġapren":593,"uego":594,"Ġjugando":595,"Ġbuen":596,"ido":597,"Ġcar":598,"Ġtien":599,"ĠpensÃ³":600,"Ġtom":601,"Ãº":602,"Ġlle":603,"SÃŃ":604,"ĠjugÃ³":605,"cer":606,"Ġnuevo":607,"Ġroja":608,"Ã±o":609,"Ġhi":610,"ĠLila":611,"ĠMamÃ¡":612,"ito":613,"tel":614,"Ġpastel":615,"?\"":616,"Ġas":617,"Ġllamada":618,"ado":619,"ru":620,"ĠriÃ³":621,"amos":622,"Ã©n":623,"Mi":624,"Ġser":625,"Ġto":626,"los":627,"Ġsen":628,"cÃ³":629,"Ġtam":630,"aba":631,"Ġman":632,"par":633,"Ġpregun":634,"Ġeran":635,"ĠaprendiÃ³":636,"Ġrep":637,"Ġcol":638,"Spot":639,"Qui":640,"Ġama":641,"odos":642,"oco":643,"ĠpequeÃ±a":644,"Ġrepente":645,"ros":646,"ĠhabÃŃa":647,"ĠSam":648,"Ġaz":649,"vi":650,"ĠsabÃŃa":651,"ĠLos":652,"Ġli":653,"biÃ©n":654,"Ġhue":655,"ĠNo":656,"hora":657,"dÃ³":658,"ĠpreguntÃ³":659,"uch":660,"Ġsue":661,"Ġma":662,"Ġayudar":663,"Ġcaja":664,"Ġmal":665,"Ġjugaron":666,"ĠtambiÃ©n":667,"Ġbr":668,"Ġazul":669,"Ġjun":670,"Ġdice":671,"Ġso":672,"Ġco":673,"ita":674,"ÃŃn":675,"ve":676,"Ġar":677,"Ġcos":678,"Ġgri":679,"ĠP":680,"Ġbrilla":681,"Ġcama":682,"Ġencon":683,"Ġo":684,"Ġagu":685,"Ġmo":686,"ĠC":687,"Ġmon":688,"Ġmejo":689,"up":690,"ron":691,"Ġesp":692,"ombre":693,"Ġbus":694,"raci":695,"Ġhueso":696,"Ġmuchos":697,"ĠSe":698,"ĠtomÃ³":699,"edo":700,"Ġbon":701,"Ġconten":702,"ĠÂ¿":703,"ĠEstaba":704,"Ġcer":705,"Ġjar":706,"Ġvol":707,"enÃŃa":708,"\"Â¡":709,"Ġmiedo":710,"dos":711,"Ġhombre":712,"Ġestaban":713,"Ġmejor":714,"Ġtu":715,"Ġjard":716,"racias":717,"ĠjardÃŃn":718,"Ġfueron":719,"Te":720,"iemp":721,"Ġ\"Â¿":722,"car":723,"ĠV":724,"las":725,"jas":726,"zÃ³":727,"Ġjuguete":728,"ĠgritÃ³":729,"QuÃ©":730,"ir":731,"Ġasus":732,"ida":733,"ormi":734,"ton":735,"Ġjuntos":736,"za":737,"Mira":738,"Ġsi":739,"Gracias":740,"Quiero":741,"Ġir":742,"trÃ³":743,"Ġmar":744,"Pue":745,"Ġfelices":746,"Ġtoc":747,"ĠUn":748,"Ġhacer":749,"ĠH":750,"ĠcomiÃ³":751,"Ġsolo":752,"ocup":753,"se":754,"Ġbien":755,"Ġcarro":756,"Ġam":757,"âĢĿ":758,"era":759,"âĢľ":760,"Ġabra":761,"ga":762,"tir":763,"Ġhaci":764,"Ġna":765,"Ġjuguetes":766,"nte":767,"Los":768,"Ãīl":769,"eb":770,"demos":771,"Ġcosas":772,"uÃ©s":773,"odemos":774,"espuÃ©s":775,"pa":776,"Ġpelu":777,"tonces":778,"Ġpi":779,"ĠniÃ±os":780,"Ġpreocup":781,"erm":782,"Ġalgo":783,"Ġflor":784,"jÃ³":785,"Ġgustaba":786,"Ġdormi":787,"ĠEn":788,"Ġtan":789,"tÃ³n":790,"ĠÃ©":791,"Ġhizo":792,"Ġcal":793,"illo":794,"Vamos":795,"ĠÃ©l":796,"ur":797,"Ġti":798,"Ġbueno":799,"Ġpla":800,"Ġescuch":801,"Ġcompar":802,"ana":803,"Ġch":804,"ciÃ³n":805,"Ġpreocupes":806,"Ġquiero":807,"Ġgal":808,"Ġtodos":809,"vo":810,"ieron":811,"ina":812,"Ġhacia":813,"una":814,"endo":815,"Fue":816,"Ã¡p":817,"das":818,"Ġgrandes":819,"Ġalto":820,"Tom":821,",\"":822,"Ġfuerte":823,"Ġan":824,"Ġbeb":825,"Su":826,"Leo":827,"Ġagua":828,"Le":829,"Ġamaba":830,"Yo":831,"Ġquier":832,"Ġmov":833,"ĠLuego":834,"yÃ³":835,"osa":836,"ĠmirÃ³":837,"uno":838,"ÃŃo":839,"Ġllev":840,"Ġcoche":841,"aron":842,"bo":843,"iempre":844,"elo":845,"ump":846,"Ġva":847,"ĠrÃ¡p":848,"Ġvola":849,"ĠVio":850,"runo":851,"Ġos":852,"oy":853,"Ġmuchas":854,"Ġbal":855,"ĠLas":856,"ras":857,"Ġdormir":858,"Ġtor":859,"Ġin":860,"?\",":861,"ĠTenÃŃa":862,"Ġhab":863,"ĠratÃ³n":864,"Ġtodo":865,"iente":866,"ĠâĢľ":867,"rar":868,"Ġescon":869,"uela":870,"Ġpoco":871,"DespuÃ©s":872,"uando":873,"cÃŃa":874,"ales":875,"Ġlleg":876,"Ġcone":877,"omb":878,"ĠencontrÃ³":879,"ĠsaliÃ³":880,"Ġau":881,"lorÃ³":882,"Ġcompartir":883,"rÃŃa":884,"Ġlib":885,"Ġcomida":886,"ĠrÃ¡pido":887,"Ġella":888,"ĠsentÃ³":889,"Ġcamin":890,"ĠDe":891,"ano":892,"Las":893,"ĠHabÃŃa":894,"Ġjue":895,"Ġamar":896,"Ella":897,"Ġhe":898,"Ġbar":899,"Ġtienda":900,"miÃ³":901,"Ġquiere":902,"Ġsiempre":903,"ĠY":904,"Max":905,"im":906,"Ġtiene":907,"ĠLe":908,"ques":909,"Ben":910,"Ġcontento":911,"ble":912,"Ġol":913,"Ġdivir":914,"ĠllorÃ³":915,"Ġotra":916,"Ay":917,"Ġsua":918,"ĠescuchÃ³":919,"ronto":920,"Ġcara":921,"Ġdeb":922,"Puedo":923,"Ġcolump":924,"Ġll":925,"Ġcorri":926,"Ġtener":927,"ĠsueÃ±o":928,"ĠBruno":929,"Ġpronto":930,"ĠabriÃ³":931,"Ġrui":932,"ia":933,"Ġbrillante":934,"ico":935,"Ġencan":936,"Ġgusta":937,"me":938,"Ġpuer":939,"Est":940,"Ġreg":941,"Ġauto":942,"Ġlibro":943,"Ġtra":944,"Ġjugaba":945,"Ġespe":946,"Ġci":947,"qu":948,"!âĢĿ":949,"Ġri":950,"cas":951,"Ġgalle":952,"Ġpuedo":953,"Ġcomo":954,"Ġojos":955,"cu":956,"Ġcui":957,"ĠabrazÃ³":958,"tro":959,"tr":960,"Ġconejo":961,"En":962,"Ġporque":963,"Ġpuedes":964,"Ġcolor":965,"ĠcayÃ³":966,"Ġtocar":967,"ĠbalÃ³n":968,"Ahora":969,"Ġbonito":970,"ĠbebÃ©":971,"eg":972,"Ġdesp":973,"Ġherm":974,"Ġsuave":975,"QuerÃŃa":976,"Ġpuerta":977,"Ġemp":978,"pe":979,"ĠLuna":980,"Ġmalo":981,"Mittens":982,"lado":983,"Ġflores":984,"ĠquÃ©":985,"Ġdeli":986,"Ġcolumpio":987,"Ġpal":988,"tado":989,"den":990,"Ġotro":991,"lan":992,"Ġpan":993,"Ġcoc":994,"Ġruido":995,"Ġblo":996,"Ġpez":997,"ĠllegÃ³":998,"mas":999,"ĠmoviÃ³":1000,"ĠsaltÃ³":1001,"ugar":1002,"Ġvolv":1003,"\"Â¿":1004,"Ġglo":1005,"gui":1006,"Ġlejos":1007,"EstÃ¡":1008,"Ġdelici":1009,"Ġdos":1010,"Ã±e":1011,"ĠasustÃ³":1012,"Ġdul":1013,"Ġsomb":1014,"Ġiba":1015,"Juan":1016,"Ġlad":1017,"Ġlin":1018,"ĠEntonces":1019,"Estaba":1020,"ĠmuÃ±e":1021,"Eres":1022,"bu":1023,"Ġllo":1024,"Ġac":1025,"ĠbuscÃ³":1026,"Ġdij":1027,"eces":1028,"Ġsuelo":1029,"mo":1030,"isa":1031,"Ġcans":1032,"Ġfa":1033,"Ġvolar":1034,"ones":1035,"ĠEllos":1036,"Ġespeci":1037,"Ġbloques":1038,"Ġhelado":1039,"Ġcielo":1040,"Ã¡n":1041,"Ġahora":1042,"ante":1043,"ĠcanciÃ³n":1044,"Ana":1045,"vor":1046,"ĠllevÃ³":1047,"Ġcorriendo":1048,"Se":1049,"Ġfavor":1050,"Ġanim":1051,"Ġmanz":1052,"ip":1053,"emos":1054,"ica":1055,"Ġsegu":1056,"ap":1057,"Ġcontenta":1058,"Ġhay":1059,"Ġencantaba":1060,"ĠvolÃ³":1061,"Ġpeludo":1062,"Ġbuscar":1063,"ĠlamiÃ³":1064,"ena":1065,"Ġatra":1066,"Ã¡g":1067,"Ġpu":1068,"ada":1069,"Ġcomp":1070,"Lila":1071,"ic":1072,"ya":1073,"au":1074,"bajo":1075,"Oh":1076,"lar":1077,"Ġestar":1078,"Ġpri":1079,"dilla":1080,"Ġcerca":1081,"Ġhora":1082,"st":1083,"Ġdesper":1084,"Ġcola":1085,"ame":1086,"ĠD":1087,"?\".":1088,"rena":1089,"Ġcab":1090,"Ġanimales":1091,"Ġencontra":1092,"uvi":1093,"ĠEran":1094,"ĠleÃ³n":1095,"Ġaf":1096,"itas":1097,"Ã±Ã³":1098,"Ġus":1099,"Ġcuando":1100,"Me":1101,"Ġsobre":1102,"Ġnada":1103,"Ġbarco":1104,"Ãºs":1105,"Ġromp":1106,"Ġdibu":1107,"Ġlimp":1108,"ino":1109,"ĠmÃ¡g":1110,"Ġpon":1111,"lÃ³":1112,"tillo":1113,"Ġotros":1114,"Ġpl":1115,"quÃŃ":1116,"ĠCoco":1117,"Ġimp":1118,"yas":1119,"Ġmucha":1120,"Ġempu":1121,"ĠdespertÃ³":1122,"toy":1123,"Ġacer":1124,"ĠâĢľÂ¡":1125,"Ġsombr":1126,"Ġex":1127,"Ġlugar":1128,"Ġaleg":1129,"Ġgor":1130,"isto":1131,"Ġda":1132,"rÃŃo":1133,"ndo":1134,"esa":1135,"Ġimpor":1136,"Ġmano":1137,"Ġabuela":1138,"Ġmira":1139,"les":1140,"eado":1141,"tieron":1142,"Ten":1143,"Ġpodemos":1144,"Ġpeluche":1145,"Ġjuega":1146,"Ã±a":1147,"Ġescond":1148,"oja":1149,"Ġpuede":1150,"Por":1151,"Ġcaliente":1152,"Ġcu":1153,"no":1154,"ara":1155,"Ġvi":1156,"jero":1157,"Ġsombrero":1158,"cho":1159,"Puedes":1160,"Ġbaila":1161,"Ġham":1162,"Ġcuen":1163,"Ġimporta":1164,"Ġmarip":1165,"ĠseÃ±":1166,"Ġblan":1167,"uera":1168,"Podemos":1169,"Ġsoleado":1170,"gas":1171,"apÃ¡":1172,"ĠquedÃ³":1173,"gar":1174,"Ġarena":1175,"iento":1176,"ĠQuerÃŃa":1177,"Ġpudo":1178,"zÃ³n":1179,"Ġluego":1180,"Ġsa":1181,"Ġespecial":1182,"eres":1183,"Ġneces":1184,"ura":1185,"ed":1186,"iz":1187,"Ġpol":1188,"dad":1189,"Ġabe":1190,"Ġplaya":1191,"Al":1192,"Ġcastillo":1193,"Ġamable":1194,"ĠJug":1195,"stru":1196,"Ġglobo":1197,"oca":1198,"esta":1199,"trÃ¡s":1200,"unca":1201,"Sam":1202,"ub":1203,"Ġamarillo":1204,"Ã±os":1205,"Ġagujero":1206,"Ġdar":1207,"odas":1208,"anas":1209,"ĠTodos":1210,"Ġfru":1211,"Ġmono":1212,"Ġafuera":1213,"TenÃŃa":1214,"biÃ³":1215,"taron":1216,"Ġya":1217,"Ġesper":1218,"ÃŃe":1219,"ĠfrÃŃo":1220,"Ġtuvo":1221,"Eso":1222,"Ġoscu":1223,"ĠpÃ¡jaros":1224,"Ġdijeron":1225,"Eran":1226,"Ġperros":1227,"lÃŃ":1228,"Ġele":1229,"tÃŃa":1230,"Ġbos":1231,"Ġfi":1232,"ici":1233,"Ġtorre":1234,"Ġmariposa":1235,"Ġleche":1236,"Ġcorre":1237,"Ġbosque":1238,"Ġdivirtieron":1239,"ĠdetrÃ¡s":1240,"bos":1241,"Ġnub":1242,"Ġmis":1243,"Ġayuda":1244,"Ġpueden":1245,"ĠayudÃ³":1246,"ntes":1247,"uel":1248,"Ġgol":1249,"sa":1250,"Ġven":1251,"Ġdur":1252,"eso":1253,"Ġveces":1254,"Ġregal":1255,"Ġverde":1256,"Ãºn":1257,"Ġenf":1258,"Ġcomprar":1259,"Ġmiel":1260,"Ġtodas":1261,"Ġelef":1262,"Ġgusano":1263,"Ġjugaban":1264,"Ġquiso":1265,"ĠacercÃ³":1266,"ĠdivirtiÃ³":1267,"Ġsor":1268,"Ġhuev":1269,"van":1270,"Ġcocina":1271,"Ġpie":1272,"iempo":1273,"uvia":1274,"Ġgalletas":1275,"Ġtiempo":1276,"Ġpelotas":1277,"Ġves":1278,"Luego":1279,"Ġpro":1280,"Ġardilla":1281,"Ġcabe":1282,"teÃ³":1283,"Ġsigui":1284,"Ġboca":1285,"Ġsonido":1286,"laro":1287,"ĠescondiÃ³":1288,"rel":1289,"Entonces":1290,"Ġnunca":1291,"ĠcorrÃŃa":1292,"cha":1293,"uc":1294,"Ġlar":1295,"Ġlluvia":1296,"Ġestrel":1297,"ĠLisa":1298,"Ã³nde":1299,"Ġnar":1300,"entes":1301,"guiÃ³":1302,"can":1303,"Ġlevan":1304,"Ġlu":1305,"asta":1306,"Ġjueg":1307,"orro":1308,"Ġgalleta":1309,"ĠcerrÃ³":1310,"ĠallÃŃ":1311,"Ġcabeza":1312,"Ġcre":1313,"Ġimportante":1314,"ĠAhora":1315,"ĠaquÃŃ":1316,"ĠempujÃ³":1317,"riba":1318,"Ġabrazo":1319,"Ġher":1320,"Ġalta":1321,"ÃŃan":1322,"uau":1323,"Ġdulce":1324,"Ġregres":1325,"Ġdelicioso":1326,"ilo":1327,"rÃ³n":1328,"Ġazules":1329,"Ġbrillantes":1330,"Ġasustado":1331,"Ġbonitas":1332,"Ġenoja":1333,"Ġnariz":1334,"ĠrompiÃ³":1335,"zar":1336,"Ġtar":1337,"Ġor":1338,"Ġbrillaba":1339,"Ġcansado":1340,"Ġtoda":1341,"Ġdivertida":1342,"Ġgolpe":1343,"Ġcolores":1344,"Ġplu":1345,"ĠgustÃ³":1346,"Ġencontrar":1347,"Ġah":1348,"ues":1349,"Ġlindo":1350,"raba":1351,"Ġvolver":1352,"Ġmos":1353,"Ġhambre":1354,"ĠhacÃŃa":1355,"urru":1356,"Ġacurru":1357,"ĠsentÃŃa":1358,"mÃ³":1359,"Ġolvi":1360,"Ġfres":1361,"Claro":1362,"ĠsiguiÃ³":1363,"Ġdes":1364,"Ġrojas":1365,"Ġeres":1366,"Tengo":1367,"Ġextra":1368,"ĠtocÃ³":1369,"Ġarriba":1370,"Ġconti":1371,"Ġvesti":1372,"migo":1373,"Ġbola":1374,"Ã±ana":1375,"Ġamarilla":1376,"Ġmanzana":1377,"Ġbonita":1378,"Ġeso":1379,"Ġdue":1380,"entro":1381,"Son":1382,"eta":1383,"Ġabri":1384,"Ġsiguiente":1385,"Ġpato":1386,"Estoy":1387,"Ġconmigo":1388,"Ġresp":1389,"Ġav":1390,"ĠestÃ¡n":1391,"Ġpayas":1392,"bir":1393,"Ġho":1394,"ec":1395,"Ġsab":1396,"Ġtren":1397,"Ġnueva":1398,"Ġpati":1399,"ches":1400,"ĠahÃŃ":1401,"Ġroca":1402,"Ġmonstru":1403,"ĠcantÃ³":1404,"Ġplan":1405,"HabÃŃa":1406,"Ġarco":1407,"Ġcuida":1408,"ÃŃris":1409,"ĠarcoÃŃris":1410,"ĠdejÃ³":1411,"Guau":1412,"Ġz":1413,"Ġpasa":1414,"ĠmuÃ±eca":1415,"Ġcontigo":1416,"Ġalas":1417,"ĠdespuÃ©s":1418,"ĠsubiÃ³":1419,"Voy":1420,"ĠvolviÃ³":1421,"Ġabeja":1422,"Ġraro":1423,"Ġescuela":1424,"mÃ¡s":1425,"Ġelefante":1426,"TÃº":1427,"Ġrojos":1428,"Ġtro":1429,"don":1430,"Ġza":1431,"Ġdebajo":1432,"vÃŃa":1433,"Ġese":1434,"Ġbot":1435,"Ġcuenta":1436,"ĠacurrucÃ³":1437,"Ġzapa":1438,"Ġpatio":1439,"ĠdemÃ¡s":1440,"Ġtorta":1441,"rer":1442,"Ġpes":1443,"ĠDespuÃ©s":1444,"Ġhasta":1445,"dra":1446,"ĠmarrÃ³n":1447,"ucy":1448,"uena":1449,"ay":1450,"qui":1451,"Ġinc":1452,"ĠmÃ¡gico":1453,"ĠladrÃ³":1454,"Ġdulces":1455,"ĠseguÃŃa":1456,"elig":1457,"Ġverdes":1458,"ĠCor":1459,"dido":1460,"ĠmaÃ±ana":1461,"ier":1462,"Com":1463,"Ġvolando":1464,"ĠtirÃ³":1465,"ĠN":1466,"tor":1467,"Ġfuego":1468,"Ġmesa":1469,"Ġvas":1470,"Ġpalo":1471,"Ġbuena":1472,"pÃ³":1473,"Ġcach":1474,"Ġpalom":1475,"ĠpequeÃ±os":1476,"reg":1477,"der":1478,"Ġsilla":1479,"prendiÃ³":1480,"Este":1481,"Ġsubir":1482,"Ġmaes":1483,"Ġhici":1484,"Ġvestido":1485,"diÃ³s":1486,"Ġcorrer":1487,"ĠDi":1488,"Ġove":1489,"Ġfiesta":1490,"Ã³mo":1491,"eros":1492,"Quieres":1493,"Ġcaram":1494,"giÃ³":1495,"Ġvieron":1496,"Ġcuidar":1497,"Ġvino":1498,"ento":1499,"Ġsalir":1500,"ĠrazÃ³n":1501,"um":1502,"Ġbailar":1503,"Ġtienes":1504,"ĠdaÃ±o":1505,"ng":1506,"pue":1507,"Ġrieron":1508,"tu":1509,"Ġmanzanas":1510,"ĠdurmiÃ³":1511,"Ġosito":1512,"Ġpin":1513,"Ġhace":1514,"ĠveÃŃa":1515,"Ġara":1516,"Ġdis":1517,"Ġhojas":1518,"Ġarreg":1519,"Ġhermos":1520,"inal":1521,"Ġide":1522,"luso":1523,"Ġnoche":1524,"Ġmad":1525,"Ġtengo":1526,"Ġnie":1527,"iendo":1528,"Ġregalo":1529,"chas":1530,"rando":1531,"Ġamiga":1532,"ĠquerÃŃan":1533,"ĠPodemos":1534,"Ġalcan":1535,"Ġpers":1536,"Oso":1537,"Ġcerdo":1538,"Ġtoma":1539,"ĠtenÃŃan":1540,"Ġreal":1541,"AdiÃ³s":1542,"Ġtus":1543,"PapÃ¡":1544,"Ġluz":1545,"Ġgall":1546,"Ġosos":1547,"Ġhablar":1548,"tada":1549,"Ġlimpi":1550,"rag":1551,"!âĢĿ,":1552,"Ġmonstruo":1553,"Ġuno":1554,"Ġdrag":1555,"Ġllevar":1556,"Ġles":1557,"Ġplato":1558,"ig":1559,"ĠSol":1560,"Ġatrapar":1561,"Ġpayaso":1562,"Ġllen":1563,"Ġcomen":1564,"iÃ±o":1565,"olÃ³":1566,"illos":1567,"Ġnos":1568,"ĠentrÃ³":1569,"ĠpateÃ³":1570,"ĠÃ¡rboles":1571,"Ġnube":1572,"ĠcaminÃ³":1573,"Ġellos":1574,"ĠlevantÃ³":1575,"bal":1576,"ĠolvidÃ³":1577,"Ġalcanzar":1578,"ĠestÃ¡s":1579,"Dame":1580,"eni":1581,"âĢľÂ¡":1582,"Ġtarde":1583,"Ġsonr":1584,"ĠdecÃŃa":1585,"Ġcabal":1586,"Ġroto":1587,"Vio":1588,"Ġjugo":1589,"Ġcuer":1590,"Ġherman":1591,"ĠdÃŃas":1592,"ĠLucy":1593,"Ġlan":1594,"Ġpeda":1595,"Ġrato":1596,"Ġfan":1597,"Ġredon":1598,"Ġidea":1599,"Ġpelig":1600,"of":1601,"!âĢĿ.":1602,"Ġtristes":1603,"ĠalegrÃ³":1604,"ĠsonrÃŃe":1605,"Ġhabita":1606,"Ġcomieron":1607,"Lo":1608,"Ġtengas":1609,"ĠreÃŃa":1610,"Ġplumas":1611,"Ġusar":1612,"Ġverdad":1613,"itos":1614,"osas":1615,"Ġblanco":1616,"erse":1617,"Buen":1618,"Ġdentro":1619,"Ġhar":1620,"Ġventa":1621,"Soy":1622,"DÃ³nde":1623,"mente":1624,"Ġpata":1625,"cio":1626,"izo":1627,"Cuando":1628,"Ġleer":1629,"Ġdol":1630,"idas":1631,"Esa":1632,"ĠhabitaciÃ³n":1633,"Ġentonces":1634,"Ya":1635,"Jug":1636,"Ġvuel":1637,"Ġenferm":1638,"erra":1639,"istori":1640,"Ġdebes":1641,"Ġhistori":1642,"Ġmanos":1643,"Ġrespon":1644,"ete":1645,"Ġgan":1646,"Ġdientes":1647,"Ġvie":1648,"Ġperson":1649,"Ġjuegan":1650,"Ġban":1651,"Ġhuevo":1652,"ĠAl":1653,"Ġbi":1654,"ĠbajÃ³":1655,"Ġbru":1656,"Ġoscuro":1657,"Ġdu":1658,"Ġviento":1659,"Ġyo":1660,"Ãºsica":1661,"Ġautob":1662,"Ġserp":1663,"âĢĿ.":1664,"ver":1665,"ĠPapÃ¡":1666,"ĠR":1667,"ĠsoÃ±Ã³":1668,"Ġzo":1669,"Ġzapatos":1670,"Ġhicieron":1671,"ĠmÃºsica":1672,"Ġcaer":1673,"Ġsentir":1674,"Ġqueso":1675,"ÃŃr":1676,"ĠdragÃ³n":1677,"ĠdueÃ±o":1678,"ĠpodÃŃan":1679,"Esta":1680,"cos":1681,"gre":1682,"ĠcariÃ±o":1683,"Ġprim":1684,"Ġsiento":1685,"Ġball":1686,"Ġdivertidos":1687,"Ġdemas":1688,"Ġpala":1689,"ern":1690,"ĠsÃŃ":1691,"ĠgolpeÃ³":1692,"ĠpasÃ³":1693,"Ġbol":1694,"raz":1695,"Tu":1696,"Ġpasto":1697,"ĠesperÃ³":1698,"Ġladraba":1699,"Ġentra":1700,"Ġtel":1701,"ĠmontÃ³n":1702,"ĠaviÃ³n":1703,"Ġglobos":1704,"Ġgeni":1705,"dor":1706,"Ġpollo":1707,"Ġdif":1708,"Ġlav":1709,"die":1710,"du":1711,"Ġestrella":1712,"Ġvamos":1713,"Ġacar":1714,"ĠF":1715,"Ġfuera":1716,"ĠautobÃºs":1717,"Ġdibujo":1718,"ĠrespondiÃ³":1719,"ĠaraÃ±a":1720,"Ġbas":1721,"Ġlobo":1722,"Ġcump":1723,"Ġnieve":1724,"ĠPue":1725,"oz":1726,"Ġcamp":1727,"Ġsopa":1728,"ĠpequeÃ±as":1729,"Ġllorar":1730,"Ġalgun":1731,"ientes":1732,"gÃ³":1733,"intiÃ³":1734,"Ġdin":1735,"Ġtomar":1736,"Ġescal":1737,"Ġgordo":1738,"Ġcachorro":1739,"Ġayudarte":1740,"tuvo":1741,"Ese":1742,"Ġcorrieron":1743,"undo":1744,"Ġenfermo":1745,"pero":1746,"ĠseÃ±ora":1747,"Ġcumple":1748,"Ġtrajo":1749,"ĠregresÃ³":1750,"inÃ³":1751,"ĠfrÃŃa":1752,"Ġenten":1753,"Ġescuchar":1754,"Ġvoz":1755,"Ġnadar":1756,"Ġvaca":1757,"Ġcuidado":1758,"Ġincluso":1759,"Ġplanta":1760,"aÃ±os":1761,"jer":1762,"Ġvaso":1763,"ĠextraÃ±o":1764,"Ġcantaba":1765,"ĠrodÃ³":1766,"Todos":1767,"Ġdeliciosa":1768,"ĠcumpleaÃ±os":1769,"Bruno":1770,"iado":1771,"Ãºd":1772,"Ġap":1773,"ÃŃcu":1774,"Ġlago":1775,"ĠdebÃŃa":1776,"Ġdeci":1777,"Ġfantas":1778,"Ġnecesita":1779,"Ġpira":1780,"ĠrÃŃe":1781,"Ġcuerda":1782,"va":1783,"ĠmetiÃ³":1784,"Ġpiz":1785,"Ġmor":1786,"ĠG":1787,"Ġponer":1788,"Ġhermano":1789,"cado":1790,"Ġrue":1791,"Ġvoy":1792,"Ġpus":1793,"ĠSus":1794,"Ġpajar":1795,"Ġbeso":1796,"Ġcantar":1797,"Ġfam":1798,"Ġcoches":1799,"Ġmoja":1800,"Ġpizza":1801,"ĠcomenzÃ³":1802,"dieron":1803,"arÃŃa":1804,"ĠTed":1805,"Ġdije":1806,"Ġagar":1807,"alla":1808,"Ġfrutas":1809,"ĠDijo":1810,"Ġdebe":1811,"Ġenojado":1812,"rito":1813,"fa":1814,"ĠbebiÃ³":1815,"otas":1816,"gico":1817,"Ġdisf":1818,"ion":1819,"Ġcamino":1820,"Ġventana":1821,"Ġbici":1822,"ĠTe":1823,"Ġcaramelo":1824,"avi":1825,"Ġseguro":1826,"Ġfresas":1827,"Ġpiedra":1828,"Ġcosa":1829,"Ġluna":1830,"Ġperf":1831,"ĠYo":1832,"ĠcontÃ³":1833,"Ġgig":1834,"Ġbes":1835,"ĠasintiÃ³":1836,"Ġchoc":1837,"itaba":1838,"tal":1839,"ciones":1840,"Ġbuenos":1841,"Ġgenial":1842,"bor":1843,"odÃŃa":1844,"Ġpapel":1845,"ĠSon":1846,"ĠCuando":1847,"Ġtambor":1848,"rieron":1849,"Ġgu":1850,"col":1851,"ĠaÃºn":1852,"ĠmovÃŃa":1853,"Ġem":1854,"Ġprin":1855,"ĠMi":1856,"Ġcaballo":1857,"Ġpajarito":1858,"ĠcÃ³mo":1859,"Ġlarga":1860,"Ġrama":1861,"cciÃ³n":1862,"ĠsorprendiÃ³":1863,"ienes":1864,"Ġdemasiado":1865,"ban":1866,"cil":1867,"ĠllamÃ³":1868,"ĠSan":1869,"Ġsola":1870,"Ġgustaban":1871,"Ġdinero":1872,"AyÃºd":1873,"Ġbuenas":1874,"Ġgallina":1875,"idos":1876,"ter":1877,"ves":1878,"Ġconcha":1879,"Ġnubes":1880,"aban":1881,"cto":1882,"Ġvec":1883,"Ġpavo":1884,"Ġcalle":1885,"Ġfri":1886,"ĠlecciÃ³n":1887,"Ġtaza":1888,"Ġfavorito":1889,"Ġterm":1890,"Ġsuci":1891,"Ġhilo":1892,"orm":1893,"Ġdoc":1894,"Ayu":1895,"ama":1896,"olate":1897,"Ġserpiente":1898,"Ġgris":1899,"olÃ³gico":1900,"ĠzoolÃ³gico":1901,"mag":1902,"ĠmÃŃo":1903,"Ġcaminar":1904,"antes":1905,"tin":1906,"Ġhier":1907,"Ġhierba":1908,"Ġredonda":1909,"Ġense":1910,"Ġhuevos":1911,"ger":1912,"Ġpedazo":1913,"Ġchocolate":1914,"Ġlleno":1915,"Ġhermana":1916,"untos":1917,"Ġpeces":1918,"Ġfal":1919,"Ġpone":1920,"Ġestrellas":1921,"Ġnecesitaba":1922,"ĠatrapÃ³":1923,"Ġzorro":1924,"vieron":1925,"Ġpasar":1926,"ĠmÃ¡gica":1927,"Ġnuevas":1928,"ĠmÃŃ":1929,"Ġemoc":1930,"Ġnuevos":1931,"Ġdoctor":1932,"Ġjuego":1933,"ĠsacÃ³":1934,"ĠsoÃ±":1935,"ĠayudarÃ©":1936,"Ġemocion":1937,"ste":1938,"ĠmuÃ±eco":1939,"Ġdetuvo":1940,"ĠmuÃ±ecas":1941,"Ġchis":1942,"ĠbaÃ±o":1943,"Ġrodilla":1944,"Ġcuch":1945,"Ġnido":1946,"Ġdivertidas":1947,"Wo":1948,"edro":1949,"Ġbotel":1950,"Ġhaciendo":1951,"Ġirse":1952,"MÃ¡s":1953,"Ġcin":1954,"Ġabrir":1955,"rada":1956,"ĠseÃ±or":1957,"Ġamo":1958,"nos":1959,"dÃŃa":1960,"puedo":1961,"Ven":1962,"ĠOso":1963,"Ġabajo":1964,"sos":1965,"dedor":1966,"roso":1967,"Ġcalor":1968,"ĠMia":1969,"Ġllena":1970,"Ġempe":1971,"Ġsop":1972,"bles":1973,"Ġconf":1974,"Ġrico":1975,"chi":1976,"Ġdesa":1977,"Ġpersonas":1978,"je":1979,"Ġmaestra":1980,"Ġtierra":1981,"Ġlim":1982,"Ġimag":1983,"Ġlimpiar":1984,"Ġval":1985,"Ġbajar":1986,"ĠtÃº":1987,"Ġnaran":1988,"Ġmaul":1989,"inas":1990,"Ġpapas":1991,"Ġran":1992,"Ġcome":1993,"Ġesta":1994,"Ġton":1995,"Ġmundo":1996,"Ġinten":1997,"Ġhistoria":1998,"mar":1999,"ĠJugaron":2000,"di":2001,"Ġpis":2002,"Ġespeciales":2003,"Ġrosa":2004,"Ġfruta":2005,"ĠlanzÃ³":2006,"cen":2007,"elos":2008,"Ġhermosa":2009,"rededor":2010,"Ġalrededor":2011,"Ã¡l":2012,"Ġtoques":2013,"ueve":2014,"bog":2015,"Ġtobog":2016,"Ġsalchi":2017,"Ġballena":2018,"illas":2019,"ĠJugÃ³":2020,"yo":2021,"Ġtras":2022,"Ġfinal":2023,"Ġcora":2024,"Ġbusca":2025,"Ġcaracol":2026,"gul":2027,"ven":2028,"ĠsueÃ±os":2029,"Ġorgul":2030,"ngel":2031,"ĠpelÃŃcu":2032,"ĠtÃŃo":2033,"tura":2034,"Ġsabe":2035,"Ġgranja":2036,"ĠÃ¡ngel":2037,"AquÃŃ":2038,"Luna":2039,"Ġoveja":2040,"Ġprinces":2041,"Ġmadre":2042,"Ġsoy":2043,"Ġabue":2044,"uga":2045,"AyÃºdame":2046,"Ġlinda":2047,"Ġvuelta":2048,"Ġdormido":2049,"Ġcamisa":2050,"Estaban":2051,"ciÃ³":2052,"dy":2053,"Ġrana":2054,"Ġarreglar":2055,"Ġmujer":2056,"Ġu":2057,"Ġfamil":2058,"ĠCom":2059,"Ġgru":2060,"iciÃ³":2061,"ĠacariciÃ³":2062,"Ġpusieron":2063,"bri":2064,"cito":2065,"Ġmalos":2066,"Ġapa":2067,"Ġprincesa":2068,"Ġllamaba":2069,"Ġreco":2070,"Ġabejas":2071,"Ġhabla":2072,"Ġsof":2073,"Ġhecho":2074,"ĠsofÃ¡":2075,"ĠrÃŃo":2076,"Ġsaltar":2077,"ĠtobogÃ¡n":2078,"Ġbu":2079,"ĠLo":2080,"Ġacos":2081,"ĠhablÃ³":2082,"men":2083,"dando":2084,"ĠUna":2085,"Ġdurmi":2086,"pres":2087,"esoro":2088,"Ġgatos":2089,"Ġcangre":2090,"ĠÃº":2091,"Tenemos":2092,"Ġperrito":2093,"Ġave":2094,"Ġpoll":2095,"Ġmed":2096,"Ã¡ta":2097,"Ġtesoro":2098,"Ġeste":2099,"vis":2100,"Ġquer":2101,"Ġpo":2102,"anos":2103,"Ġcanciones":2104,"Ġbo":2105,"Ġhoja":2106,"Ġescalera":2107,"ĠFue":2108,"ĠleyÃ³":2109,"iene":2110,"Ġabrigo":2111,"Ã±as":2112,"Ġpele":2113,"ĠagarrÃ³":2114,"Ġhuesos":2115,"Ġsem":2116,"Ġfantasma":2117,"Ġperfec":2118,"Ġpelo":2119,"ĠHizo":2120,"ueva":2121,"Coco":2122,"risa":2123,"Ġllover":2124,"ĠPuedes":2125,"ĠCorriÃ³":2126,"uemos":2127,"Ġayudarme":2128,"ĠempezÃ³":2129,"Ġlisto":2130,"Ġrota":2131,"Ġlargo":2132,"Ġchico":2133,"Ġhormi":2134,"Ġtort":2135,"Ġmirando":2136,"ĠtodavÃŃa":2137,"Ġfuertes":2138,"ene":2139,"ĠcorazÃ³n":2140,"tico":2141,"Ġido":2142,"Ġgente":2143,"Ġhada":2144,"Ġestuvi":2145,"Ġbeber":2146,"ĠTen":2147,"Ġeno":2148,"Cor":2149,"wi":2150,"Ġbruja":2151,"ĠmaullÃ³":2152,"iego":2153,"dwi":2154,"Ġpaloma":2155,"dentro":2156,"Ġsiente":2157,"Ġnues":2158,"uis":2159,"Ġoscura":2160,"Ġbomb":2161,"Hay":2162,"Per":2163,"Ġestoy":2164,"Ġnadie":2165,"ĠBus":2166,"Ġperdido":2167,"Ġtele":2168,"Ġovejas":2169,"Neces":2170,"presa":2171,"icar":2172,"Ã¡ndwi":2173,"Ġcueva":2174,"rbu":2175,"Ġvis":2176,"Ġcanta":2177,"Ġmanta":2178,"arlos":2179,"ĠplÃ¡ta":2180,"ĠsÃ¡ndwi":2181,"Ġtortuga":2182,"Ġfe":2183,"Ġcangrejo":2184,"Ġasustada":2185,"Ġrey":2186,"ĠcÃ¡l":2187,"Ġsombra":2188,"tia":2189,"ĠcogiÃ³":2190,"Juguemos":2191,"Ġtromp":2192,"ĠusÃ³":2193,"Ġsentado":2194,"odr":2195,"Ġpare":2196,"Ġdejar":2197,"Ġentrar":2198,"Ġburbu":2199,"Ġbur":2200,"Ġadentro":2201,"Ġpate":2202,"Ġtre":2203,"Ġmosca":2204,"Ġgigante":2205,"âĢĿ,":2206,"Ġvelas":2207,"ĠvivÃŃa":2208,"Ġlis":2209,"ĠbesÃ³":2210,"Tal":2211,"Ġvisto":2212,"Ġpantal":2213,"..":2214,"Ġregalos":2215,"Ġdecir":2216,"Ġpartes":2217,"vas":2218,"Ġdibujos":2219,"Ġpos":2220,"Tienes":2221,"Ġjuntas":2222,"ias":2223,"Ġsucio":2224,"ami":2225,"Ġnaranja":2226,"ĠbebÃ©s":2227,"ĠnadÃ³":2228,"Ġbasura":2229,"Ġpalab":2230,"ierta":2231,"fÃ©":2232,"Ġruedas":2233,"Ġgatita":2234,"lie":2235,"Ġcabra":2236,"ĠolÃŃa":2237,"har":2238,"con":2239,"harlie":2240,"Ġburro":2241,"Ġmas":2242,"inar":2243,"Ġsien":2244,"ĠcafÃ©":2245,"Ġbail":2246,"icardo":2247,"Ġtab":2248,"ĠPedro":2249,"Ġlimpio":2250,"Ġamigas":2251,"Ġnue":2252,"Ġgallo":2253,"Dos":2254,"chos":2255,"ablo":2256,"Ġnoches":2257,"ĠacostÃ³":2258,"EstÃ¡s":2259,"ĠintentÃ³":2260,"Ġcarros":2261,"trÃ©":2262,"mma":2263,"Ġpirata":2264,"por":2265,"vio":2266,"ĠSara":2267,"Ġsacar":2268,"alÃ³":2269,"ĠsÃ¡ndwich":2270,"Ġpeligroso":2271,"ugo":2272,"Ġdifer":2273,"Ġcons":2274,"Ġsalta":2275,"Ġsonrisa":2276,"Ġalgunas":2277,"avid":2278,"Ġdurmiendo":2279,"Ellos":2280,"Ġmala":2281,"Ġbayas":2282,"gos":2283,"Ġautos":2284,"ill":2285,"Ġjunto":2286,"Ġpeluda":2287,"Ġolfa":2288,"Ġcaminaba":2289,"Ġpluma":2290,"Ġbarri":2291,"trui":2292,"bot":2293,"Ġtru":2294,"Compar":2295,"Ġotras":2296,"Ġvaliente":2297,"PodÃŃa":2298,"ĠTeddy":2299,"Ġcena":2300,"nita":2301,"Ġore":2302,"Ġmalas":2303,"Ġmiraba":2304,"Ġencontraron":2305,"ĠbotÃ³n":2306,"ĠentendÃŃa":2307,"Ġchic":2308,"Ġcomerlo":2309,"Ġchica":2310,"tiago":2311,"Ġenojada":2312,"Ġbomberos":2313,"Ġpaseo":2314,"Ġesperar":2315,"Ġdisfraz":2316,"Ġconstrui":2317,"Ġsaltaba":2318,"tras":2319,"Ġguar":2320,"Ġcuento":2321,"acÃŃa":2322,"Ġpatas":2323,"Ġpr":2324,"Ġllegar":2325,"ernando":2326,"ĠYa":2327,"Ġbajo":2328,"Ġduele":2329,"Ġbicho":2330,"Ġron":2331,"tarse":2332,"Ġmone":2333,"Ġcontar":2334,"Miau":2335,"ofÃŃa":2336,"Ġpiso":2337,"lada":2338,"Ġola":2339,"Ġcubo":2340,"Ġrec":2341,"ĠdolÃŃa":2342,"leta":2343,"ĠTenÃŃan":2344,"Ġbote":2345,"Ġconstruir":2346,"ĠolfateÃ³":2347,"Ġtomate":2348,"Ġpatos":2349,"ke":2350,"Ġfamilia":2351,"Ġcinta":2352,"hor":2353,"Ġespejo":2354,"Ġmonta":2355,"ĠpodrÃŃa":2356,"Ġcometa":2357,"Ġconejos":2358,"anahor":2359,"Ġllegaron":2360,"Ġcocodr":2361,"ĠniÃ±as":2362,"Ġtoalla":2363,"Ġzanahor":2364,"caron":2365,"ĠpelÃŃcula":2366,"ÃŃnci":2367,"Ser":2368,"Ġprimero":2369,"ĠMarÃŃa":2370,"Ġestuviera":2371,"ĠprÃŃnci":2372,"Ġronron":2373,"Ġraton":2374,"Ġmonos":2375,"Ġcapa":2376,"Ġaprender":2377,"Ġatrap":2378,"ĠprÃŃncipe":2379,"Ġburbujas":2380,"Much":2381,"Ã©ro":2382,"Ġamor":2383,"esÃºs":2384,"Ġesto":2385,"Ġamarillas":2386,"Ġestu":2387,"ĠsoplÃ³":2388,"Ġcamis":2389,"puedes":2390,"Ġmanchas":2391,"Ġronrone":2392,"mbre":2393,"Ġtraba":2394,"Ġmismo":2395,"Ġneg":2396,"Ġblancas":2397,"Ġpollito":2398,"Ġsuaves":2399,"Ġarro":2400,"Ġenano":2401,"Ġgustan":2402,"rique":2403,"ĠharÃ¡":2404,"Ġmojado":2405,"Ġbicic":2406,"Ġhaber":2407,"Ġpeligros":2408,"Ġantes":2409,"Lisa":2410,"ĠÃ¡gui":2411,"ĠJuntos":2412,"Ġcocodrilo":2413,"Ġning":2414,"ĠningÃºn":2415,"Ġhor":2416,"Ġpad":2417,"ĠcomprÃ³":2418,"Ġtoro":2419,"cre":2420,"ite":2421,"otos":2422,"Ġig":2423,"Ġlibros":2424,"Ġbols":2425,"Ġquedar":2426,"ĠSo":2427,"ĠpidiÃ³":2428,"raron":2429,"ĠAlgun":2430,"usto":2431,"quÃ©":2432,"Ġsorpresa":2433,"Ġbuscaron":2434,"Sal":2435,"Sol":2436,"Ġolla":2437,"Ġent":2438,"ĠvÃŃ":2439,"Ġoro":2440,"Ġigles":2441,"Ġchar":2442,"key":2443,"Ġnene":2444,"ĠbaÃ±":2445,"Ġmom":2446,"CÃ³mo":2447,"Ġjuegos":2448,"Ġvacas":2449,"Ġescri":2450,"Ġrio":2451,"ĠplÃ¡tano":2452,"Ġanda":2453,"Ġcua":2454,"Ġbicicleta":2455,"Ġbonitos":2456,"ÃŃz":2457,"ÃŃas":2458,"ĠÃ¡guila":2459,"ĠencontrÃ©":2460,"ÃŃs":2461,"Ġdibujar":2462,"bora":2463,"Ġpescado":2464,"Ġblanca":2465,"ĠmordiÃ³":2466,"Ġpared":2467,"Ġescondidas":2468,"dida":2469,"Ġmomento":2470,"Ġgorila":2471,"Ġat":2472,"ĠgruÃ±Ã³":2473,"Ġcoh":2474,"rante":2475,"Ġesconderse":2476,"Ġfotos":2477,"Ġquieres":2478,"Ġbotella":2479,"ĠvÃŃbora":2480,"Ġint":2481,"Ġabuelo":2482,"ĠmaÃŃz":2483,"duras":2484,"Ġfui":2485,"Ġbarriga":2486,"Ġtrabajo":2487,"Ġcansada":2488,"Ġduro":2489,"dan":2490,"ĠenojÃ³":2491,"Ġfresa":2492,"Ġorejas":2493,"icas":2494,"ios":2495,"Ġpalabras":2496,"Ġsecre":2497,"be":2498,"ĠenseÃ±Ã³":2499,"inalmente":2500,"Ġmueve":2501,"ato":2502,"Ġcohete":2503,"ĠSabÃŃa":2504,"zaron":2505,"Ġquie":2506,"ĠcansÃ³":2507,"Ġbolas":2508,"Buenas":2509,"Ġpier":2510,"Ġuvas":2511,"Ġrara":2512,"Ġdedo":2513,"Ġmirar":2514,"Ġtres":2515,"ĠBa":2516,"Siempre":2517,"Ġfavorita":2518,"Ġcaminaron":2519,"Ġgusanos":2520,"In":2521,"Ġasusta":2522,"ĠSolo":2523,"ĠreÃŃr":2524,"Ġverduras":2525,"Ãºm":2526,"Ġmona":2527,"Ġge":2528,"per":2529,"Ġpregunta":2530,"ĠPip":2531,"ĠdÃ³nde":2532,"ĠLola":2533,"Ġproble":2534,"Ġruidos":2535,"Ġras":2536,"Ġviejo":2537,"ĠSal":2538,"Ġdoy":2539,"Ġmaestro":2540,"ĠterminÃ³":2541,"Ġbalan":2542,"Ġespa":2543,"Ġgui":2544,"ĠhÃ©ro":2545,"Ġarmar":2546,"ĠMe":2547,"Ġtran":2548,"Ġbalance":2549,"Ġarmario":2550,"Ġluces":2551,"Ġconfun":2552,"Ġhermosas":2553,"Ba":2554,"Ġratones":2555,"Ġfo":2556,"Ġbolsa":2557,"Compartir":2558,"ĠsoÃ±aba":2559,"zos":2560,"Ġmejores":2561,"Ġhacen":2562,"Ġllorando":2563,"Ġtonto":2564,"Ġcaramelos":2565,"fici":2566,"Ġsalu":2567,"az":2568,"Ġcesta":2569,"otros":2570,"Ġlimpia":2571,"ire":2572,"Ġmontar":2573,"guien":2574,"able":2575,"Ġcharco":2576,"ĠEstaban":2577,"Ġhombrecito":2578,"ĠlÃ¡":2579,"Ġjab":2580,"Ġesa":2581,"guas":2582,"Ġcerrada":2583,"Ġsienta":2584,"ĠcÃ¡lido":2585,"ĠnÃºm":2586,"Ġcoco":2587,"ĠAm":2588,"Ġencanta":2589,"Ġfrijo":2590,"cara":2591,"Ġtrompeta":2592,"Ġpies":2593,"Ġbotas":2594,"Ġsed":2595,"ĠmostrÃ³":2596,"Ġhu":2597,"Ãºcar":2598,"ÃŃcil":2599,"imos":2600,"ĠdifÃŃcil":2601,".âĢĿ":2602,"bÃ³":2603,"ĠlÃ¡mp":2604,"cÃ¡n":2605,"ĠronroneÃ³":2606,"Ġaire":2607,"dera":2608,"ĠazÃºcar":2609,"Ġpico":2610,"ĠjabÃ³n":2611,"dÃ³n":2612,"Ġelefantes":2613,"ĠEsta":2614,"Ġcosqu":2615,"Ġsalchicha":2616,"dÃŃ":2617,"Ġmadera":2618,"Ġlado":2619,"ĠlÃ¡mpara":2620,"ĠsÃ©":2621,"ĠSoÃ±Ã³":2622,"Ġdon":2623,"Ġtarta":2624,"ĠSue":2625,"Ġsalvo":2626,"ĠCorrieron":2627,"ĠLuis":2628,"iera":2629,"Ġbandera":2630,"Ġmover":2631,"Ġlista":2632,"orros":2633,"Ġpintura":2634,"Ġsecreto":2635,"ĠvolcÃ¡n":2636,"ĠpegÃ³":2637,"Ġgraci":2638,"Ġinse":2639,"Ġsig":2640,"Ġperfecto":2641,"Ġdesapar":2642,"ĠtÃŃ":2643,"Ġbarro":2644,"vos":2645,"Ġconstru":2646,"Ġsimp":2647,"Ġres":2648,"Ġhormigas":2649,"Ġcajas":2650,"oh":2651,"Ġenfer":2652,"Ġpalomas":2653,"osos":2654,"oma":2655,"Ġiglesia":2656,"Ġcrecer":2657,"dir":2658,"Ġpollos":2659,"Ã¡cil":2660,"ĠVamos":2661,"ne":2662,"ĠTim":2663,"ĠfÃ¡cil":2664,"ĠbailÃ³":2665,"dras":2666,"ĠlÃ¡p":2667,"Ġplantas":2668,"fre":2669,"rones":2670,"eras":2671,"ĠLlorÃ³":2672,"Ġregreso":2673,"ĠMic":2674,"ĠMickey":2675,"ĠSofÃŃa":2676,"Ġamables":2677,"ĠmÃŃa":2678,"Ġala":2679,"Ġsan":2680,"Ġpiedras":2681,"tÃ¡s":2682,"San":2683,"Ġtomates":2684,"Ġalguien":2685,"Ġguitar":2686,"Ġcachorros":2687,"Ġayudo":2688,"Ġsucia":2689,"ĠcomÃŃa":2690,"Ġzapato":2691,"Ġcambi":2692,"Ġlazo":2693,"Ġatrapado":2694,"omos":2695,"Ġllave":2696,"Ġquieren":2697,"Ġdorm":2698,"rado":2699,"Ġhones":2700,"Ġaves":2701,"Sus":2702,"ono":2703,"ĠbaÃ±era":2704,"Ġpierna":2705,"Ġmoto":2706,"ĠquitÃ³":2707,"Ġrad":2708,"ĠQuiero":2709,"Ġpantalones":2710,"Ġcru":2711,"razos":2712,"ados":2713,"Ġdiente":2714,"Ġbrazos":2715,"Ġguitarra":2716,"Ġdiam":2717,"ĠcaÃŃ":2718,"Ġcasas":2719,"Ġlasti":2720,"onada":2721,"Ġmuchacho":2722,"ĠCarlos":2723,"Ġag":2724,"Ġcondu":2725,"Ġladra":2726,"Ġad":2727,"Jugar":2728,"Ġsirena":2729,"Ġcampana":2730,"Ġchu":2731,"Ġqueda":2732,"Deb":2733,"ĠJesÃºs":2734,"ĠoyÃ³":2735,"Ġfoto":2736,"Ġgorro":2737,"uelita":2738,"ĠPablo":2739,"ĠasÃŃ":2740,"Ġconej":2741,"Ġpreci":2742,"Ġquieto":2743,"Si":2744,"Ġlana":2745,"Ġbe":2746,"Ġparaguas":2747,"Ġmoverse":2748,"Ġrocas":2749,"Ġseas":2750,"Ġdurante":2751,"zas":2752,"Dentro":2753,"po":2754,"Woof":2755,"Ġtocarlo":2756,"jÃ³n":2757,"Ġgallinas":2758,"queta":2759,"Ġalgunos":2760,"Ġempujar":2761,"Ġvolvieron":2762,"Ġceb":2763,"Ġpres":2764,"Ġtenemos":2765,"Ġhoy":2766,"fono":2767,"Ġcomiendo":2768,"Hizo":2769,"iones":2770,"chÃ³":2771,"ĠdibujÃ³":2772,"ĠRicardo":2773,"bur":2774,"Ġhaces":2775,"Ġmen":2776,"Ġaprendieron":2777,"Ġfrijoles":2778,"reÃŃ":2779,"Ġcen":2780,"Ġreales":2781,"room":2782,"ĠEmma":2783,"Ġinsecto":2784,"uega":2785,"burg":2786,"ĠHugo":2787,"loso":2788,"Ġorgulloso":2789,"Ġlavar":2790,"ĠSantiago":2791,"Ġcofre":2792,"ĠCharlie":2793,"Ġconejito":2794,"eloj":2795,"vol":2796,"Ġcamiones":2797,"Ġcha":2798,"ĠtelÃ©":2799,"Ġreloj":2800,"Nos":2801,"odo":2802,"Ġlibre":2803,"Ġpasta":2804,"Ġmancha":2805,"Ġgracias":2806,"Ġcuchara":2807,"Ġbailaron":2808,"Ġgoma":2809,"Ġcebol":2810,"Ġropa":2811,"**":2812,"uy":2813,"ĠTomÃ³":2814,"Ġrica":2815,"Ġconchas":2816,"Ġdonde":2817,"Ġhamburg":2818,"Ġpito":2819,"Ġcerdos":2820,"Ġsentaron":2821,"Ġnosotros":2822,"Ġpayasos":2823,"Ġtienen":2824,"Ġvuela":2825,"ĠtelÃ©fono":2826,"Ġpien":2827,"Ġpedir":2828,"Ġabuelita":2829,"ĠincreÃŃ":2830,"Ġdescan":2831,"ĠHacÃŃa":2832,"Ġfide":2833,"Ġespon":2834,"Ġmargar":2835,"Ġtabla":2836,"Ġjusto":2837,"Solo":2838,"Ġchaqueta":2839,"ira":2840,"ĠalegrÃŃa":2841,"Ġenferma":2842,"Ġsalieron":2843,"ĠdarÃ©":2844,"Ġcarne":2845,"ĠserÃŃa":2846,"man":2847,"adie":2848,"Vi":2849,"Ġgrita":2850,"ĠGato":2851,"eciÃ³":2852,"Ġsorpren":2853,"ĠdÃ©":2854,"Ã©s":2855,"ĠsÃ¡":2856,"ĠTengo":2857,"Ġdiamante":2858,"Ġduer":2859,"Ġensa":2860,"ĠDavid":2861,"Ġsaltaron":2862,"Ġtravi":2863,"Ġhablaba":2864,"Ġhermanito":2865,"Ġchup":2866,"vamos":2867,"Vete":2868,"Ġsegura":2869,"Ġsobri":2870,"Ġfideos":2871,"ruen":2872,"tera":2873,"ĠmÃ¡scara":2874,"ĠreÃŃan":2875,"Ġref":2876,"Ġpiratas":2877,"Ġensalada":2878,"ĠLaura":2879,"Ġcasita":2880,"pt":2881,"cÃ³pt":2882,"elicÃ³pt":2883,"Ġlimonada":2884,"Wow":2885,"viÃ³":2886,"Ġcomas":2887,"Ġsalsa":2888,"Ġcollar":2889,"dr":2890,"Ġpiensa":2891,"ĠJugar":2892,"Ġganar":2893,"ĠrecogiÃ³":2894,"ĠDiego":2895,"Ġtelevis":2896,"lados":2897,"Ġtocino":2898,"irÃ³":2899,"Ġbebi":2900,"yeron":2901,"Ġsala":2902,"iste":2903,"ueron":2904,"Ġhon":2905,"Ġencuen":2906,"Ġabur":2907,"Ġfritas":2908,"ĠAmbos":2909,"Ġprem":2910,"dado":2911,"Ġllora":2912,"ĠhelicÃ³pt":2913,"Ġcartas":2914,"gado":2915,"ĠperdiÃ³":2916,"ĠlÃ¡piz":2917,"Ġbra":2918,"Ġpastor":2919,"Ġlloraba":2920,"Ayudar":2921,"cita":2922,"Ġcel":2923,"Ġayudado":2924,"Ġvecina":2925,"Ġpasteles":2926,"Ġinvi":2927,"Ġnombre":2928,"ĠâĢľÂ¿":2929,"Ġvan":2930,"Ġfeo":2931,"vir":2932,"Ġhistorias":2933,"Ġdarle":2934,"ible":2935,"Ġaten":2936,"Ġnena":2937,"ĠCam":2938,"ĠAnita":2939,"Ġtela":2940,"ĠdormÃŃa":2941,"are":2942,"Ġarroz":2943,"?âĢĿ":2944,"Ġgra":2945,"Ġcalce":2946,"Ġmonedas":2947,"Ġcosquillas":2948,"Ġproblema":2949,"Ġvieja":2950,"Ġamarillos":2951,"Ġigu":2952,"Ġcebolla":2953,"erman":2954,"Ġcir":2955,"ĠmontaÃ±a":2956,"Ġamigable":2957,"ĠPup":2958,"Ġorgullos":2959,"Ġcirco":2960,"ere":2961,"ĠcuidÃ³":2962,"Ġmartillo":2963,"ĠFernando":2964,"ĠEst":2965,"Feli":2966,"quer":2967,"Ġmonstruos":2968,"gan":2969,"ĠEnrique":2970,"Ġcada":2971,"pera":2972,"sar":2973,"cando":2974,"ĠextraÃ±a":2975,"Ġvecino":2976,"Ġtrof":2977,"Ġpedazos":2978,"bil":2979,"Ġprima":2980,"til":2981,"Ġpega":2982,"Toma":2983,"Ġoc":2984,"Ġgorra":2985,"ĠcajÃ³n":2986,"Ġexc":2987,"Ġrosas":2988,"ĠatÃºn":2989,"ĠvacÃŃa":2990,"Ġcampo":2991,"ĠentendiÃ³":2992,"ĠhÃ©roe":2993,"Ġnorm":2994,"quilo":2995,"ĠJugaba":2996,"Ġabre":2997,"Ġclas":2998,"Ġrueda":2999,"Ġplatos":3000,"Ġdiferente":3001,"chila":3002,"Ġdados":3003,"cluso":3004,"Ġmochila":3005,"ĠamÃ³":3006,"Ġtruen":3007,"Ġpersona":3008,"Ġatrapa":3009,"Ġrecor":3010,"Ġmargarita":3011,"Ġperra":3012,"Ġob":3013,"ĠVe":3014,"Ġtirar":3015,"ĠO":3016,"Ġpescar":3017,"tman":3018,"ĠlimpiÃ³":3019,"uri":3020,"bar":3021,"Ġbarcos":3022,"arz":3023,"Ġtrofeo":3024,"Ġlatas":3025,"viera":3026,"Ġtruco":3027,"Ġcuar":3028,"ĠSiempre":3029,"laba":3030,"Ġbota":3031,"Ġpalomitas":3032,"Ġmiraron":3033,"ĠNavi":3034,"Ġhermoso":3035,"Ġaburri":3036,"Ġfrutos":3037,"Ġprof":3038,"Ġhelados":3039,"ĠlimÃ³n":3040,"unque":3041,"Ġgatitos":3042,"Ġcaminando":3043,"ĠdÃ©bil":3044,"Ġdebemos":3045,"Ġluch":3046,"ale":3047,"Ġdesay":3048,"Necesito":3049,"ĠSandra":3050,"Ġgrises":3051,"Ġconoc":3052,"Ġcaballos":3053,"Ġtibu":3054,"Ġbanco":3055,"Ġcae":3056,"Ġcuri":3057,"ensÃ³":3058,"ĠHay":3059,"ĠestarÃŃa":3060,"Ġlento":3061,"Ġalcanzarla":3062,"Ġasquer":3063,"enas":3064,"Ġayudarlo":3065,"Ġbel":3066,"Ġencen":3067,"Ġmoscas":3068,"inaron":3069,"Juega":3070,"ĠAlgunos":3071,"ĠniÃ±ita":3072,"Ġprepa":3073,"Ġrebot":3074,"amÃ³n":3075,"ĠrebotÃ³":3076,"Ġunas":3077,"Ġnecesitan":3078,"Ġmes":3079,"arzÃ¡n":3080,"Ġgotas":3081,"mm":3082,"Ll":3083,"li":3084,"Ġbro":3085,"Ġllega":3086,"Ġbichos":3087,"Ġllevaba":3088,"Ġalegre":3089,"Ġpanque":3090,"Ġchicle":3091,"tines":3092,"ĠMirÃ³":3093,"Espera":3094,"Ġpintar":3095,"Ġzanahorias":3096,"Cui":3097,"ĠcortÃ³":3098,"ĠsonrÃŃo":3099,"Ġsalchichas":3100,"ĠAprendiÃ³":3101,"Ġbotellas":3102,"Ġcorba":3103,"iar":3104,"Ġtem":3105,"Ġacarici":3106,"ĠBuscÃ³":3107,"Ġviene":3108,"terna":3109,"Ġcalcetines":3110,"Ġlleva":3111,"Ġlinterna":3112,"Ġasomb":3113,"Ġter":3114,"ĠjamÃ³n":3115,"Ġmapa":3116,"abul":3117,"orado":3118,"Ġpisc":3119,"ĠFinalmente":3120,"Ġmedalla":3121,"Ġpiscina":3122,"tivo":3123,"Ġocup":3124,"Ġanillos":3125,"Ġpavos":3126,"Ġsonrieron":3127,"usa":3128,"Ġcima":3129,"Pon":3130,"Ġmostra":3131,"Mis":3132,"Ġdistin":3133,"Ġjau":3134,"com":3135,"Ġorgullosa":3136,"Ġballenas":3137,"Ġfuimos":3138,"Ġsale":3139,"sÃŃ":3140,"Ġradio":3141,"guir":3142,"Ġaltos":3143,"Ġprote":3144,"Ġherido":3145,"Ġimagina":3146,"Ġcontentos":3147,"Ġcalientes":3148,"Ġellas":3149,"Ġpadres":3150,"if":3151,"Ġayudan":3152,"ĠPodÃŃa":3153,"ĠvolverÃŃa":3154,"Ġpase":3155,"ang":3156,"Ġbuscando":3157,"...":3158,"ĠNavidad":3159,"Ġgritaron":3160,"Ġcuarto":3161,"Bang":3162,"ĠestÃ³":3163,"eran":3164,"Ġcorbata":3165,"Ġabierta":3166,"Ġpatatas":3167,"Ġratas":3168,"Ġbara":3169,"Ġmasc":3170,"quilla":3171,"Ġtormen":3172,"mago":3173,"Ġdieron":3174,"tica":3175,"Ġdeja":3176,"ĠestÃ³mago":3177,"Ġcamiseta":3178,"Ġatas":3179,"Ġsemilla":3180,"Ġdivier":3181,"Bo":3182,"Ġpij":3183,"Ġtravieso":3184,"vÃ³":3185,"Ġcenar":3186,"Ġdedos":3187,"erte":3188,"ambiÃ©n":3189,"ĠseÃ±alÃ³":3190,"Ġpesada":3191,"Ġpic":3192,"Ġcorrecto":3193,"ima":3194,"Ġcortar":3195,"ĠTÃº":3196,"Ġfor":3197,"Ġtrueno":3198,"ritÃ³":3199,"Ġmante":3200,"Ġmantequilla":3201,"Ġguardar":3202,"Ġjira":3203,"vado":3204,"nif":3205,"Ġhadas":3206,"Ġfabul":3207,"SabÃŃa":3208,"Ġdolor":3209,"Ġjaula":3210,"lti":3211,"Ġcocin":3212,"Les":3213,"Ġmago":3214,"Ġhogar":3215,"Ġpueb":3216,"Ġescondite":3217,"Ġhermanita":3218,"ĠÃºlti":3219,"ĠUno":3220,"Ġhablan":3221,"Ġbolsillo":3222,"Ġaltas":3223,"Ġlodo":3224,"Ġpino":3225,"Ġtapa":3226,"Encon":3227,"ona":3228,"Ġpalos":3229,"Ġcoca":3230,"Ġhijo":3231,"Ġmojada":3232,"Ġvisita":3233,"ĠEllas":3234,"Ġromper":3235,"Ġhielo":3236,"ĠbalanceÃ³":3237,"Ġequi":3238,"ĠTiene":3239,"Ġcoger":3240,"ĠapagÃ³":3241,"Ġale":3242,"Ġhambri":3243,"ĠenseÃ±":3244,"uesta":3245,"Feliz":3246,"ĠganÃ³":3247,"arecÃŃa":3248,"Ġdeliciosas":3249,"cuch":3250,"Ġcrema":3251,"Ġsill":3252,"Ġarreglarlo":3253,"Ġdepor":3254,"remos":3255,"Ġhijos":3256,"Ġrug":3257,"Ġbata":3258,"Ġgracioso":3259,"ĠlavÃ³":3260,"Ġbarba":3261,"Ġbaja":3262,"Ġdivertir":3263,"Ġtoca":3264,"Pel":3265,"Ġcartera":3266,"Ġcuader":3267,"ĠjalÃ³":3268,"ĠsillÃ³n":3269,"Ġparte":3270,"idad":3271,"jita":3272,"Ġfantasmas":3273,"Ġgigantes":3274,"Ġafila":3275,"Ġgar":3276,"Lucy":3277,"Ġrecoger":3278,"Ġcuaderno":3279,"ĠSi":3280,"Ġvasos":3281,"Ġtenis":3282,"ĠestarÃ¡":3283,"tros":3284,"Ġsemillas":3285,"ernas":3286,"gia":3287,"ĠcÃŃr":3288,"Ġlobos":3289,"Ġfea":3290,"Ã©c":3291,"Ġbloque":3292,"perman":3293,"Ġpesado":3294,"ĠincreÃŃble":3295,"Ġconfundido":3296,"ĠvenÃŃa":3297,"Ġfuegos":3298,"sta":3299,"Esto":3300,"Ġbuscarla":3301,"ĠparecÃŃa":3302,"Ġpiano":3303,"Ġesconde":3304,"Quiere":3305,"ĠTenemos":3306,"Ġgancho":3307,"Ġcuentos":3308,"Ġprimer":3309,"ĠEste":3310,"enci":3311,"illÃ³":3312,"ĠLle":3313,"ĠSuperman":3314,"ĠEstÃ¡":3315,"Ġmara":3316,"erÃŃa":3317,"Ġtos":3318,"Ġpremio":3319,"ital":3320,"Ġencantado":3321,"Ġpanqueques":3322,"Ġesca":3323,"gres":3324,"Ġnormal":3325,"ĠPensÃ³":3326,"Incluso":3327,"ecen":3328,"ĠNadie":3329,"Ġgem":3330,"Ġtigres":3331,"Ġmarav":3332,"Ġpoder":3333,"Ġdescansar":3334,"Ayuda":3335,"Ġverlo":3336,"SaltÃ³":3337,"ĠBatman":3338,"Ġsufici":3339,"ervi":3340,"Ġnervi":3341,"Ġdormida":3342,"Ġcomerla":3343,"ĠcorrÃŃan":3344,"Ġalegra":3345,"Ġcantaron":3346,"ientras":3347,"ĠMimi":3348,"ĠtazÃ³n":3349,"Ġhijas":3350,"Ġnegra":3351,"ĠJugaban":3352,"Ġmagia":3353,"Ġlindas":3354,"ĠNunca":3355,"MarÃŃa":3356,"ĠVolÃ³":3357,"Ġmol":3358,"mado":3359,"uesas":3360,"Ġemocionado":3361,"Ġadul":3362,"Ġcaca":3363,"Ġloco":3364,"Ġsientes":3365,"erno":3366,"Ġolor":3367,"Muchos":3368,"Ġgas":3369,"nifica":3370,"Ġchicas":3371,"ĠTarzÃ¡n":3372,"Ġpiernas":3373,"Ġhijita":3374,"Ġnietos":3375,"pezÃ³":3376,"Ġpanza":3377,"Ġfuerza":3378,"Porque":3379,"ĠquemÃ³":3380,"Ġnina":3381,"Ġnuestro":3382,"Ġtranquilo":3383,"Ġdevol":3384,"Ġescaleras":3385,"ĠseÃ±al":3386,"Fueron":3387,"Ġcompartes":3388,"ĠLina":3389,"Ġmariposas":3390,"Ġjugara":3391,"Ġquitar":3392,"Ġpozo":3393,"Sab":3394,"epe":3395,"Ġespera":3396,"ĠoÃŃr":3397,"Ġalambre":3398,"ĠsecÃ³":3399,"Ġgota":3400,"Ġnin":3401,"Ġlevantarse":3402,"ĠcreciÃ³":3403,"Ġbocad":3404,"Ġempuja":3405,"Ġcampanas":3406,"stros":3407,"Ġrodando":3408,"ĠpaÃ±":3409,"Ġtambores":3410,"Ġequiv":3411,"Ġanimal":3412,"bol":3413,"Ġexp":3414,"ÃŃra":3415,"QuiÃ©n":3416,"Ġchupar":3417,"Ġningun":3418,"Ġlen":3419,"Ġpancita":3420,"josa":3421,"ridad":3422,"ĠimaginaciÃ³n":3423,"Ġsea":3424,"Ġmami":3425,"ĠaraÃ±as":3426,"Ġmarco":3427,"Ġhermanas":3428,"Ġserpientes":3429,"ĠespaÃ±":3430,"Ġcuidaba":3431,"Ġrobot":3432,"Ġnuestros":3433,"Ġllaves":3434,"MÃŃra":3435,"ĠnÃºmeros":3436,"CorriÃ³":3437,"Ġsiguieron":3438,"Ġcantaban":3439,"dÃ³nde":3440,"Ġtrenes":3441,"ĠJuana":3442,"ĠMama":3443,"acio":3444,"Sara":3445,"ĠAllÃŃ":3446,"Ġtrae":3447,"jeras":3448,"Ġabrazar":3449,"Ġricas":3450,"Estos":3451,"Ġintelig":3452,"Ġrefres":3453,"Ġapla":3454,"Ġhonesto":3455,"briÃ³":3456,"Ġchispa":3457,"Ġcier":3458,"ĠTu":3459,"quier":3460,"Ġencantaban":3461,"Ġhorri":3462,"ĠtropezÃ³":3463,"Ġtijeras":3464,"Ġdespacio":3465,"ĠÃºn":3466,"Ġbrazo":3467,"Ġprimo":3468,"Ġrayo":3469,"Ġveo":3470,"tido":3471,"Ġoscuridad":3472,"Come":3473,"garon":3474,"Alto":3475,"tener":3476,"ĠoliÃ³":3477,"Ġnegras":3478,"bado":3479,"ĠEres":3480,"Ġduerme":3481,"bieron":3482,"Ġcoloridas":3483,"ĠEstoy":3484,"Ġcanto":3485,"Ġpatear":3486,"Ġdiferentes":3487,"Ġsonri":3488,"Ġambos":3489,"Ġtocarla":3490,"Ġhamburguesas":3491,"tre":3492,"Ġtrucos":3493,"Ġprop":3494,"ocÃ³":3495,"Ġabuelos":3496,"Ġsucias":3497,"Ġcruz":3498,"Ġatraparlo":3499,"Lola":3500,"Ġpalma":3501,"Pum":3502,"Ġhomb":3503,"Ġjirafa":3504,"Ġcaso":3505,"Ã³lo":3506,"Ġhermanos":3507,"yendo":3508,"ac":3509,"Ġsegun":3510,"Ġbebida":3511,"Mami":3512,"Ġdura":3513,"Ġcocinando":3514,"itar":3515,"Ġsignifica":3516,"Todo":3517,"tri":3518,"timos":3519,"Ġfeas":3520,"Ġabrazaron":3521,"Ġay":3522,"Ġmuchachos":3523,"Ġquerida":3524,"Ġfalda":3525,"ĠbrillÃ³":3526,"Ġbailando":3527,"ĠhabÃŃan":3528,"Ġdespierta":3529,"Ġalm":3530,"Ġraras":3531,"jes":3532,"ĠrÃ¡pida":3533,"Ġsinti":3534,"Ġdeliciosos":3535,"icos":3536,"Ġhorno":3537,"Ġestuvo":3538,"ĠalgodÃ³n":3539,"Ġdeberes":3540,"Ġolas":3541,"īra":3542,"Ġletr":3543,"Ġpobre":3544,"Ġja":3545,"Ġqueremos":3546,"Ġasustaron":3547,"Bus":3548,"Ġhormiga":3549,"Ġiban":3550,"Ġinteres":3551,"nas":3552,"Ġchicos":3553,"Ġamigui":3554,"ĠPuedo":3555,"ĠfantÃ¡s":3556,"tbol":3557,"Ted":3558,"Ġalim":3559,"ĠdesapareciÃ³":3560,"ĠMa":3561,"Ġencuentra":3562,"Mmm":3563,"Ãīra":3564,"Ġbasur":3565,"Ã©ctri":3566,"Ġhambriento":3567,"Ġfamoso":3568,"ĠtÃŃas":3569,"Ãºtbol":3570,"Ġcantando":3571,"Ġabraza":3572,"ume":3573,"ĠelÃ©ctri":3574,"Ġventanas":3575,"Ġpijama":3576,"rr":3577,"Ġtemb":3578,"rac":3579,"Ġperfume":3580,"Ġparecen":3581,"Ãīrase":3582,"Ġzoo":3583,"ĠfÃºtbol":3584,"Ġbasurero":3585,"Ġpista":3586,"ĠBeb":3587,"Bum":3588,"Ġlargas":3589,"Ġsuerte":3590,"ĠEso":3591,"ĠpintÃ³":3592,"Ġequivoc":3593,"Zaz":3594,"ĠplÃ¡s":3595,"Ġhondo":3596,"Ġsiesta":3597,"uerzo":3598,"Ġbrujas":3599,"Ġcolumpios":3600,"Ġalcanzarlo":3601,"ĠBuscaron":3602,"Ġalimen":3603,"ĠplÃ¡stico":3604,"Ġalum":3605,"Ġzanahoria":3606,"Ġandar":3607,"Baila":3608,"ĠGritÃ³":3609,"Ġbroma":3610,"Ġayudaron":3611,"Ġprimos":3612,"Ma":3613,"Juntos":3614,"Ġtrabajar":3615,"Ġnuez":3616,"timi":3617,"ster":3618,"Ġletrero":3619,"Ġsean":3620,"Ġpuerco":3621,"Ġmedic":3622,"Ġred":3623,"Ġmister":3624,"Ġdesayuno":3625,"ez":3626,"Ġlados":3627,"Ġinteligente":3628,"Ġnecesitas":3629,"Ġprofundo":3630,"ĠhelicÃ³ptero":3631,"ĠComiÃ³":3632,"Ġalmuerzo":3633,"Ġesconder":3634,"Ġduch":3635,"Ġtigre":3636,"Ġgemelos":3637,"Ġandaba":3638,"Ġtrozo":3639,"ĠrÃŃ":3640,"jame":3641,"Ġfl":3642,"Ġsomos":3643,"Ġcla":3644,"Ġcamisas":3645,"Ġfalso":3646,"Ġinven":3647,"ĠenseÃ±ar":3648,"Ġseguir":3649,"ĠconstruyÃ³":3650,"Ġigual":3651,"Ġmarca":3652,"ĠTienes":3653,"Ġvisitante":3654,"Can":3655,"ĠpapÃ¡s":3656,"Ġenam":3657,"Ġajo":3658,"Ġrefresco":3659,"Ġguau":3660,"Ġvestidos":3661,"ĠÃ¡ngeles":3662,"Pap":3663,"Ġesperaba":3664,"Ġlanza":3665,"Ġtanto":3666,"Ġtablas":3667,"Ġbolsas":3668,"Anita":3669,"dÃŃcu":3670,"Charlie":3671,"PerdÃŃ":3672,"Lle":3673,"Ġrealidad":3674,"Muy":3675,"bier":3676,"Ġnuestra":3677,"Ve":3678,"ĠparÃ³":3679,"Ġasustar":3680,"Ġdesde":3681,"Ġsube":3682,"Laura":3683,"Ġpeg":3684,"Ġninguna":3685,"Pa":3686,"ĠridÃŃcu":3687,"ĠdecidiÃ³":3688,"Ġimportantes":3689,"Ġolvidar":3690,"cido":3691,"joso":3692,"Carlos":3693,"Ġdisfru":3694,"Ġpapa":3695,"quieres":3696,"Ġespal":3697,"Diego":3698,"Ġcorrea":3699,"Ġmarrones":3700,"Ġsonriendo":3701,"Ġsil":3702,"Ġaunque":3703,"Ġtelevisor":3704,"Ġsonidos":3705,"Ġamiguito":3706,"ĠarreglÃ³":3707,"Ġpadre":3708,"Ġvenir":3709,"Ġmoles":3710,"ĠTambiÃ©n":3711,"Ġpensar":3712,"Ġespalda":3713,"David":3714,"orme":3715,"mira":3716,"Ġcorona":3717,"cogiÃ³":3718,"Ġdicen":3719,"Ġsillas":3720,"Ġcuna":3721,"Ġacerca":3722,"ĠtratÃ³":3723,"Ġdaba":3724,"Ġpaci":3725,"uma":3726,"Estas":3727,"Ab":3728,"Tus":3729,"Ġcubier":3730,"Ġvac":3731,"Bien":3732,"Ġemocionada":3733,"Ġducha":3734,"tinas":3735,"lop":3736,"Ġsobrino":3737,"ĠPepe":3738,"ĠimaginÃ³":3739,"Ġcere":3740,"Ġposi":3741,"cion":3742,"Ġloc":3743,"Ġmedicina":3744,"Ġpreocupada":3745,"Ġhumo":3746,"Ġunos":3747,"Ġcolina":3748,"ĠsimpÃ¡":3749,"Fernando":3750,"Ġfren":3751,"ĠtÃŃos":3752,"Ġgranjero":3753,"Pedro":3754,"Ġcondujo":3755,"Cuidado":3756,"Ricardo":3757,"Ġcuchillo":3758,"Ġaplau":3759,"Haz":3760,"Ġescondida":3761,"Ġescucha":3762,"Ġpoc":3763,"ĠpelÃŃculas":3764,"abo":3765,"Ġtormenta":3766,"rÃ¡":3767,"Ġtrepar":3768,"Ġdese":3769,"yor":3770,"Ġenorme":3771,"Ġmisteri":3772,"Ġmayor":3773,"ex":3774,"Ġlavabo":3775,"Pelota":3776,"Ġacuesta":3777,"Ġcaro":3778,"Ġpena":3779,"Ġmald":3780,"Ġdeben":3781,"Ġpegar":3782,"Ġmoneda":3783,"Ġinvis":3784,"Ġclase":3785,"moh":3786,"Ġositos":3787,"Ġenfada":3788,"Ġlindos":3789,"Ġalmoh":3790,"Ġpueblo":3791,"ĠnÃºmero":3792,"Ġsuyo":3793,"ĠPuso":3794,"Ġcomido":3795,"Sabes":3796,"Emma":3797,"Ġpelear":3798,"ĠPel":3799,"Ġfrente":3800,"Ġchiste":3801,"ĠdoliÃ³":3802,"Ġtal":3803,"Ġespuma":3804,"Ġsabor":3805,"Ġescondieron":3806,"tÃ©n":3807,"Ġsos":3808,"ticas":3809,"ĠcolumpiÃ³":3810,"Ġfuri":3811,"Ġusaba":3812,"rim":3813,"Ġdo":3814,"orada":3815,"tÃ©":3816,"Ġcortinas":3817,"Debes":3818,"Ġdivertirse":3819,"icieron":3820,"Ġlentes":3821,"Luis":3822,"Ġmando":3823,"Ġescribir":3824,"toso":3825,"inario":3826,"Ġproteger":3827,"rimero":3828,"Ġaga":3829,"bes":3830,"ĠcaÃŃdo":3831,"Ah":3832,"Ġace":3833,"culo":3834,"Ġbuscaba":3835,"ical":3836,"quiero":3837,"undos":3838,"ĠSaliÃ³":3839,"Hugo":3840,"Ġescucharon":3841,"Ġarras":3842,"Ġtimbre":3843,"DÃ©":3844,"Ġfiel":3845,"ĠaÃ±os":3846,"Ġdado":3847,"Ġapes":3848,"Ġhija":3849,"dadoso":3850,"uroso":3851,"Ġenci":3852,"Ġgeme":3853,"Ġfro":3854,"Ġseco":3855,"Ġtramp":3856,"Ġsaluda":3857,"Ġagarrar":3858,"ĠsoltÃ³":3859,"Ġcuidadoso":3860,"Ġmimi":3861,"ĠvacÃŃo":3862,"su":3863,"Ġcaluroso":3864,"Ġcansados":3865,"Ġhacerlo":3866,"Va":3867,"Ġplata":3868,"Ġcambiar":3869,"Ġojo":3870,"Ġtenido":3871,"Ġmuer":3872,"quen":3873,"Vuel":3874,"Pablo":3875,"ĠAlgunas":3876,"Ġvemos":3877,"Ġanti":3878,"Ġmisma":3879,"Ġacariciar":3880,"Sandra":3881,"Ġprimera":3882,"tiva":3883,"ierto":3884,"Ġpensando":3885,"inos":3886,"lamÃ³":3887,"Ġsucios":3888,"Ġsuel":3889,"ĠserÃ¡":3890,"?âĢĿ,":3891,"UM":3892,"Ġnervioso":3893,"jando":3894,"drÃŃa":3895,"cada":3896,"rio":3897,"ÃŃne":3898,"ĠlÃŃne":3899,"Ġpuertas":3900,"iqui":3901,"Ġaceite":3902,"Ġtocaba":3903,"ĠtrepÃ³":3904,"Ġchupete":3905,"aria":3906,"date":3907,"ĠlastimÃ³":3908,"Ġflota":3909,"Ġcuchillos":3910,"ĠsonÃ³":3911,"Ġsubirse":3912,"Ġrespe":3913,"Ġpasear":3914,"ĠagachÃ³":3915,"Ġsalva":3916,"ĠmÃ¡gicas":3917,"enes":3918,"Ġbocadillo":3919,"Fui":3920,"Ġcarta":3921,"zaba":3922,"oo":3923,"ĠescribiÃ³":3924,"Ġespacio":3925,"xima":3926,"siÃ³n":3927,"Ġdesapare":3928,"imo":3929,"Ã³mi":3930,"ĠmojÃ³":3931,"Ġpensaba":3932,"Ġalmohada":3933,"Cre":3934,"Ġlevantar":3935,"banas":3936,"Ġvivir":3937,"Ġdragones":3938,"Ġmundos":3939,"Ġmama":3940,"ĠSaltÃ³":3941,"Ġestup":3942,"Uste":3943,"lores":3944,"tÃŃ":3945,"Uno":3946,"ĠVieron":3947,"Ġirnos":3948,"ĠemocionÃ³":3949,"ĠsÃ¡banas":3950,"Ġvia":3951,"Cu":3952,"Ġbailaba":3953,"ĠPa":3954,"Ġdemasia":3955,"Ġpeligrosas":3956,"Ġadulto":3957,"Ġescondido":3958,"irar":3959,"Ġgolos":3960,"Ġfruto":3961,"Muchas":3962,"ordÃ³":3963,"omin":3964,"Ġacuer":3965,"zz":3966,"erme":3967,"Ġmasti":3968,"Ġlimpias":3969,"ĠGus":3970,"Ġclaro":3971,"Buenos":3972,"Ġnovi":3973,"ĠmÃ¡gicos":3974,"Ġvisitar":3975,"ĠPap":3976,"Ġcolm":3977,"Ġsubieron":3978,"Ġesperando":3979,"Ġcolumpiar":3980,"Ġnuestras":3981,"Ġexcel":3982,"Ġarreglado":3983,"Ġcocinar":3984,"Ġaprende":3985,"Ustedes":3986,"DÃ©jame":3987,"Ġrodar":3988,"ep":3989,"etas":3990,"Ġperdon":3991,"ĠdevolviÃ³":3992,"ĠprÃ³":3993,"ĠdiversiÃ³n":3994,"Tra":3995,"ĠAyu":3996,"Ġinvisible":3997,"Ġdomin":3998,"div":3999,"ĠcafÃ©s":4000,"Ġsuficiente":4001,"Ġtiburones":4002,"Ġvida":4003,"Otro":4004,"Ġafilados":4005,"Ġencima":4006,"doso":4007,"Ġmiga":4008,"Ġmonte":4009,"ĠechÃ³":4010,"Santiago":4011,"Ġllevarlo":4012,"Ġaprendido":4013,"alquier":4014,"Ġsorprendido":4015,"cul":4016,"ĠcÃŃrculo":4017,"Finalmente":4018,"uum":4019,"Enrique":4020,"Ġbesos":4021,"Ġinstru":4022,"ĠIncluso":4023,"Ġlig":4024,"ĠSer":4025,"Ġrasp":4026,"Ġgolpear":4027,"Ġfila":4028,"gua":4029,"Ġeleg":4030,"Ġredondo":4031,"Ġconse":4032,"ices":4033,"ĠAsÃŃ":4034,"Ġespejos":4035,"ĠespaÃ±ol":4036,"Ol":4037,"amas":4038,"Hab":4039,"Ġlame":4040,"Ġvive":4041,"ĠfrotÃ³":4042,"Ġruidoso":4043,"Ġsusp":4044,"Ġhorrible":4045,"Mama":4046,"Ġviejas":4047,"Ġmostrar":4048,"Ġmorder":4049,"mÃ¡":4050,"Ġsaber":4051,"Ġtare":4052,"ador":4053,"HacÃŃa":4054,"jeres":4055,"ĠllenÃ³":4056,"xico":4057,"Ã©xico":4058,"cÃ³n":4059,"alo":4060,"Ġsentada":4061,"Ġasom":4062,"Ġsiendo":4063,"Ġcarr":4064,"Ġmujeres":4065,"Ġfabuloso":4066,"ĠpÃ¡l":4067,"duc":4068,"temÃ¡":4069,"Ġquedaron":4070,"ensa":4071,"Ġresba":4072,"Ġleones":4073,"Ġtonta":4074,"ienen":4075,"Ġpeligrosos":4076,"Cam":4077,"ĠmontaÃ±as":4078,"Ġalumno":4079,"ĠCaminaron":4080,"sas":4081,"Ġayudaba":4082,"daba":4083,"Ġconduc":4084,"Au":4085,"Ġpapito":4086,"ĠQuerÃŃan":4087,"Ġsentirse":4088,"Ja":4089,"adÃ³":4090,"Ġfun":4091,"ĠrugiÃ³":4092,"Ġmalvado":4093,"Ġapar":4094,"Ġprac":4095,"Ġramas":4096,"Ġcualquier":4097,"Ġzum":4098,"ĠApren":4099,"Ġatascado":4100,"Ġaburrido":4101,"temÃ¡ticas":4102,"Uy":4103,"my":4104,"ĠPelusa":4105,"Ġpeligrosa":4106,"Ġbasta":4107,"Ġconfundida":4108,"Ġsintiera":4109,"Ġsano":4110,"Ġverla":4111,"oces":4112,"ĠdeberÃŃa":4113,"Ã©r":4114,"Ġarti":4115,"ĠlÃŃnea":4116,"ĠasomÃ³":4117,"âĢľÂ¿":4118,"ĠÃºtil":4119,"Ġpollitos":4120,"Ġsuper":4121,"uesto":4122,"Ġnadando":4123,"Ġpun":4124,"Ġagrada":4125,"Ġlenta":4126,"arse":4127,"Ġuste":4128,"Ġnatura":4129,"osp":4130,"Ġpondr":4131,"ospital":4132,"MaÃ±ana":4133,"uf":4134,"Ġprobar":4135,"Ġhospital":4136,"ĠNeces":4137,"Ġsentarse":4138,"Ġlibres":4139,"Ġatrapada":4140,"ĠmatemÃ¡ticas":4141,"Ġvar":4142,"edor":4143,"Ġtuyo":4144,"podemos":4145,"ĠprobÃ³":4146,"Ġvolaron":4147,"Ġconductor":4148,"vera":4149,"Ġcallado":4150,"Apren":4151,"Ġhuele":4152,"Ġesos":4153,"rro":4154,"Ġceleb":4155,"quila":4156,"ĠrÃ¡pidos":4157,"Ġtira":4158,"ĠcÃ¡lida":4159,"ĠCorrÃŃa":4160,"ĠatenciÃ³n":4161,"Ġvolviera":4162,"DÃ¡":4163,"ĠVimos":4164,"Ġseca":4165,"Ġfr":4166,"Ġsobrina":4167,"Ġgemelas":4168,"gote":4169,"Ġcolmena":4170,"Ġmariqui":4171,"ĠEse":4172,"Ġpicante":4173,"Ġbigote":4174,"Ġcompartimos":4175,"ĠParecÃŃa":4176,"ĠluchÃ³":4177,"Ġfer":4178,"ĠexclamÃ³":4179,"Ġcomerlas":4180,"bido":4181,"Ġpreocupado":4182,"Po":4183,"Ġferia":4184,"Ġsegundo":4185,"ĠraspÃ³":4186,"ĠRex":4187,"Ġustedes":4188,"Ġacuerdo":4189,"Ġalegro":4190,"Ġtrabaja":4191,"ĠencendiÃ³":4192,"Ġfresco":4193,"ho":4194,"Ġsaca":4195,"uerda":4196,"Ġmovieron":4197,"Ġasqueroso":4198,"Ġayudas":4199,"Ġ**":4200,"Ġgustar":4201,"Somos":4202,"itiÃ³":4203,"Ġgarras":4204,"Ġnovios":4205,"Ġladrar":4206,"uesa":4207,"Ġchistes":4208,"Ġfueran":4209,"talo":4210,"Ġperfecta":4211,"?âĢĿ.":4212,"amente":4213,"Ġbaile":4214,"moto":4215,"Ġterre":4216,"Ġvecinos":4217,"Ġfras":4218,"ĠmÃ©":4219,"cip":4220,"Ġtantos":4221,"zÃ¡s":4222,"Ġcuel":4223,"ello":4224,"ĠVi":4225,"melo":4226,"Ġusa":4227,"Ġnaranjas":4228,"ĠDios":4229,"verdad":4230,"Ġgros":4231,"Ġcubiertos":4232,"Ġago":4233,"Ġvoces":4234,"ĠpantalÃ³n":4235,"itÃ³":4236,"eow":4237,"ĠcompartiÃ³":4238,"Ġconvir":4239,"ĠMÃ©xico":4240,"ĠposÃ³":4241,"Ġfrasco":4242,"inado":4243,"Ġganas":4244,"ĠnaciÃ³":4245,"Ġmascota":4246,"Juana":4247,"Ġcontra":4248,"dico":4249,"Ġmojar":4250,"ĠtÃŃmi":4251,"unes":4252,"Bueno":4253,"Vuela":4254,"cÃ³mo":4255,"Ġvenda":4256,"Ġesponjosa":4257,"ĠrespirÃ³":4258,"ĠLes":4259,"Ġcabello":4260,"Ġapre":4261,"mentos":4262,"Ġdeseo":4263,"Ha":4264,"Ġtarea":4265,"ĠvolverÃ¡":4266,"ĠinvitÃ³":4267,"ceta":4268,"tito":4269,"ĠsabÃŃan":4270,"Boom":4271,"rÃ¡s":4272,"Ġgolosinas":4273,"Ġalimentos":4274,"Ġinstrumentos":4275,"ĠcuidarÃ©":4276,"Ġsuya":4277,"ĠrepitiÃ³":4278,"Ġtraer":4279,"Ġquema":4280,"Ġcompartieron":4281,"Ġdecirle":4282,"Ġmaestros":4283,"ĠtelevisiÃ³n":4284,"Ġdisfra":4285,"arÃ©":4286,"Ġviaje":4287,"ĠmÃ©dico":4288,"ĠcuidarÃŃa":4289,"cera":4290,"Ġ'":4291,"Ġmariquita":4292,"Ġpostre":4293,"taban":4294,"ĠEmp":4295,"Ġmigajas":4296,"apo":4297,"Ġfamos":4298,"Ġquieta":4299,"Ġprincip":4300,"ĠcalmÃ³":4301,"Gol":4302,"Pod":4303,"Ġharina":4304,"Ġtanta":4305,"Ġbanana":4306,"egio":4307,"licÃ³":4308,"Ġcalen":4309,"Ġsup":4310,"Ġvimos":4311,"Ġterremoto":4312,"Ġcolegio":4313,"Ġserio":4314,"Ġsacu":4315,"Ġcomidas":4316,"Ġcuello":4317,"Ġpesa":4318,"enzÃ³":4319,"Des":4320,"Ãºp":4321,"ĠtiburÃ³n":4322,"Pobre":4323,"Ġcayeron":4324,"Ġguay":4325,"Ġconduci":4326,"zado":4327,"ĠSanta":4328,"Ġvuelve":4329,"ĠgruÃ±":4330,"ĠbalcÃ³n":4331,"Ġsenc":4332,"Ġmesas":4333,"illoso":4334,"Ġbaba":4335,"ĠharÃŃa":4336,"ĠVoy":4337,"Ġveter":4338,"Primero":4339,"Ġcarrera":4340,"Ġfalsa":4341,"itamos":4342,"Ġapagar":4343,"ĠCan":4344,"Ġsimple":4345,"Ġvom":4346,"pÃŃ":4347,"Ġgrandi":4348,"uele":4349,"Para":4350,"Ġrecordar":4351,"ĠuÃ±as":4352,"pas":4353,"Ġtomaron":4354,"Ġlila":4355,"uelo":4356,"Ġveterinario":4357,"Con":4358,"LlÃ©":4359,"ĠraspÃ³n":4360,"Ġparece":4361,"Ġquedarse":4362,"Ġraros":4363,"ĠcomerÃ©":4364,"Ġreceta":4365,"Ġforma":4366,"Ġirme":4367,"Ġocupada":4368,"ĠCon":4369,"Tan":4370,"Ġviendo":4371,"Ġagradable":4372,"Ġmaravilloso":4373,"ĠSoy":4374,"Ġentero":4375,"bas":4376,"paÃ±":4377,"Necesitas":4378,"Ġhamburguesa":4379,"Ġdelgado":4380,"Ġjo":4381,"Ġhiciste":4382,"Ġtur":4383,"Ġvela":4384,"Ġprecioso":4385,"Ã¡gri":4386,"ĠplÃ¡tanos":4387,"Ġinvierno":4388,"ob":4389,"Meow":4390,"Ġnino":4391,"ĠestÃºp":4392,"Ġdiez":4393,"ĠlÃ¡gri":4394,"Ġrompen":4395,"Ġenojar":4396,"Ġmascotas":4397,"ĠconvirtiÃ³":4398,"ĠestÃ©":4399,"amento":4400,"Ġocur":4401,"Ġasombroso":4402,"Ġmus":4403,"Ap":4404,"Ġorden":4405,"unar":4406,"Ġros":4407,"cuchÃ³":4408,"estÃ¡s":4409,"Ġestudi":4410,"ĠexplicÃ³":4411,"Ġresbala":4412,"ĠprÃ³xima":4413,"Ġgeniales":4414,"Ġsido":4415,"Ġtraje":4416,"Ġverano":4417,"So":4418,"dose":4419,",âĢĿ":4420,"gamos":4421,"TenÃŃan":4422,"ĠsueÃ±a":4423,"Ġdesli":4424,"Ġpersi":4425,"Ġbrillando":4426,"Ġencontrado":4427,"orpresa":4428,"ohn":4429,"estas":4430,"Ġvroom":4431,"Ġdici":4432,"Ġhubo":4433,"rade":4434,"ĠcompartÃŃa":4435,"Bam":4436,"Ġade":4437,"Toc":4438,"rate":4439,"Ġsub":4440,"gla":4441,"Ġllores":4442,"Ġmaletas":4443,"ĠsÃ¡bado":4444,"ernos":4445,"Ġagrade":4446,"Ġsabros":4447,"Zuum":4448,"ĠveÃŃan":4449,"Ġjuegues":4450,"Ġnave":4451,"Ġayudarla":4452,"ĠlÃ¡grimas":4453,"ĠTodas":4454,"Ġtrompa":4455,"Ġjungla":4456,"Ġcelebrar":4457,"viendo":4458,"Ġleyendo":4459,"ĠÃºnico":4460,"ojo":4461,"ĠsimpÃ¡tico":4462,"ser":4463,"Ġrompieron":4464,"ĠhelicÃ³pteros":4465,"Ġcuerpo":4466,"Ġhoyo":4467,"ĠcompaÃ±":4468,"Ġdarte":4469,"Ġcerra":4470,"Ġtecho":4471,"Ġnecesito":4472,"ĠcaÃŃa":4473,"SÃ©":4474,"Ġdomingo":4475,"ĠTodo":4476,"Ġclases":4477,"Ġdespi":4478,"Ġhablando":4479,"goÃŃs":4480,"ĠegoÃŃs":4481,"ĠmovÃŃan":4482,"QuizÃ¡s":4483,"Ġriendo":4484,"Ã¡jar":4485,"Ġvin":4486,"ĠcambiÃ³":4487,"ĠsÃ³lo":4488,"Ġdame":4489,"ĠdeslizÃ³":4490,"Gan":4491,"Ġcine":4492,"Ġsaltando":4493,"ĠacordÃ³":4494,"Ġvago":4495,"Ġayud":4496,"Ġcampe":4497,"Ġsonre":4498,"Encontra":4499,"ĠBebÃ©":4500,"Ar":4501,"Ġfresca":4502,"tando":4503,"ĠestÃ©s":4504,"Ã©ano":4505,"Ġoler":4506,"comenzÃ³":4507,"ĠfantÃ¡stico":4508,"Ġflo":4509,"Ġcasi":4510,"Ġesas":4511,"Di":4512,"Creo":4513,"gada":4514,"Ġcreer":4515,"ĠarrastrÃ³":4516,"Ġsilenci":4517,"Ġconducir":4518,"tis":4519,"encia":4520,"ĠoÃŃ":4521,"Ellas":4522,"ĠrobÃ³":4523,"Ġdisfraces":4524,"SubiÃ³":4525,"Ġiguales":4526,"Ġartifici":4527,"Ġaburrida":4528,"ĠComieron":4529,"SofÃŃa":4530,"udo":4531,"Ġadiv":4532,"Ġinf":4533,"Ġpalabra":4534,"muy":4535,"Teddy":4536,"ĠmontÃ³":4537,"Ġblancos":4538,"osauri":4539,"Ġtuvieron":4540,"Ġexcelente":4541,"Ġlata":4542,"ĠocÃ©ano":4543,"Ġplaza":4544,"dote":4545,"Ġocupado":4546,"Ġgustaron":4547,"Ġpegamento":4548,"Ġdinosauri":4549,"ray":4550,"ĠNiÃ±o":4551,"Ġcierto":4552,"cidad":4553,"Ġabrirla":4554,"Ġcosita":4555,"Ġatraparla":4556,"Ġbotones":4557,"ĠegoÃŃsta":4558,"Ġpiel":4559,"ĠrÃŃen":4560,"Ġdivierte":4561,"Pas":4562,"ĠcaÃ±a":4563,"Ġcray":4564,"Ġcereal":4565,"Ġesponjoso":4566,"Perdon":4567,"ĠridÃŃculo":4568,"Tran":4569,"Ġfero":4570,"ĠtÃŃmido":4571,"Ġgrosero":4572,"ĠCada":4573,"gÃºn":4574,"Ã¡jaro":4575,"Ġsana":4576,"Ġmolesto":4577,"ĠsacudiÃ³":4578,"nu":4579,"Ġponen":4580,"ĠhacÃŃan":4581,"tados":4582,"EstÃ¡n":4583,"Vroom":4584,"Ġcaras":4585,"Vas":4586,"nic":4587,"Ġcomparten":4588,"Ġllevaron":4589,"ĠtÃŃa":4590,"Ġpicnic":4591,"Ġrobar":4592,"Ġcl":4593,"ĠarrojÃ³":4594,"ĠTal":4595,"Ġpatea":4596,"ĠelÃ©ctrico":4597,"parÃ³":4598,"Ġrata":4599,"Ouch":4600,"ĠQuiere":4601,"Ġcalvo":4602,"Ġw":4603,"AprendiÃ³":4604,"Jugamos":4605,"Ġrealmente":4606,"ĠdivertÃŃa":4607,"Ġfelicidad":4608,"Ġdivierten":4609,"Ġtocarlas":4610,"ĠmÃ¡":4611,"Ġasustados":4612,"Ãºl":4613,"gando":4614,"iebre":4615,"tillos":4616,"Ġnecesitamos":4617,"ĠÂ¡\"":4618,"Ġayudara":4619,"Ġmientras":4620,"Ġcierra":4621,"Ġfiebre":4622,"ĠhÃ©roes":4623,"ĠgustarÃŃa":4624,"Ġorilla":4625,"ĠenfadÃ³":4626,"Ġentre":4627,"end":4628,"Ġviejos":4629,"ĠMuch":4630,"cÃŃ":4631,"Corre":4632,"Ġpapi":4633,"Ġtantas":4634,"ĠpersiguiÃ³":4635,"Ġlloviendo":4636,"Ġempujaron":4637,"vroom":4638,"ĠMaya":4639,"Ġpracti":4640,"ĠdifÃŃciles":4641,"Ġpues":4642,"Ġvolaba":4643,"JesÃºs":4644,"Ġcamas":4645,"Ġnueces":4646,"Ġcanasta":4647,"Ġlimpios":4648,"Ġcamina":4649,"Ġdarles":4650,"ĠAprendieron":4651,"Ġredondas":4652,"Ġlugares":4653,"Ġaven":4654,"ĠMami":4655,"ĠpipÃŃ":4656,"Ġparedes":4657,"ParecÃŃa":4658,"Ġhonesta":4659,"Ġencontrarla":4660,"Ġconfi":4661,"Ġparada":4662,"Ġfavoritos":4663,"Jugaron":4664,"Ġbruto":4665,"Ġfurioso":4666,"Ġequivocado":4667,"Ġgen":4668,"Ġviera":4669,"Ġdescu":4670,"Ġprimavera":4671,"Beb":4672,"Ġacera":4673,"Ġgorda":4674,"PerdÃ³n":4675,"allas":4676,"Ġbuscarlo":4677,"Tim":4678,"Ġgratis":4679,"Ġbebe":4680,"Ġacercaron":4681,"Estamos":4682,"Ġlevanta":4683,"ĠtendrÃŃa":4684,"Ġperder":4685,"Ġpeludas":4686,"Llueve":4687,"cida":4688,"Ġcrea":4689,"Ġdig":4690,"Plop":4691,"Duer":4692,"Ġverlos":4693,"Ġencerra":4694,"Ġmaravillos":4695,"ĠponÃŃa":4696,"Ġloca":4697,"Ca":4698,"Ġseguros":4699,"Ġgrandote":4700,"Ġferoz":4701,"timiento":4702,"ĠatrÃ¡s":4703,"ĠDibu":4704,"ĠmenÃº":4705,"egres":4706,"Ġencontrarlo":4707,"Ġpelos":4708,"Ġdinosaurio":4709,"Ġpudieron":4710,"ĠcampeÃ³n":4711,"Ġcosta":4712,"ĠNos":4713,"Pip":4714,"Ġcontaba":4715,"Ġcastillos":4716,"Ġhagas":4717,"ĠJohn":4718,"Ġsupo":4719,"Debemos":4720,"Ã¡ndo":4721,"Ġobser":4722,"Ġguste":4723,"Ġtranquila":4724,"Ġregresaron":4725,"culos":4726,"ĠbuenÃŃs":4727,"Ġpariente":4728,"Ġsorprendida":4729,"cÃŃf":4730,"ĠsalÃ³n":4731,"ĠCompar":4732,"ps":4733,"Ã³mico":4734,"ack":4735,"rope":4736,"ĠpreparÃ³":4737,"LlÃ©v":4738,"Ġproblemas":4739,"To":4740,"Ġsombreros":4741,"ĠocurriÃ³":4742,"Ġgargan":4743,"atito":4744,"Ġcarrito":4745,"Ġponerse":4746,"vuel":4747,"ĠalgÃºn":4748,"Ġpresen":4749,"Ġcansaron":4750,"Ġduras":4751,"ĠaplaudiÃ³":4752,"Ġgarganta":4753,"Ġpagar":4754,"Ġdorado":4755,"ĠPan":4756,"tiendo":4757,"Ġestrope":4758,"Ġconstruyeron":4759,"Ġvueltas":4760,"Ġfuncion":4761,"Ġalegraron":4762,"ĠI":4763,"Ġcreci":4764,"tenÃŃa":4765,"ulio":4766,"zc":4767,"Ġmetido":4768,"Ġsintieron":4769,"Ġasquerosa":4770,"Ġesti":4771,"fri":4772,"Ġtocarlos":4773,"Ġbella":4774,"Ġpanal":4775,"Ġcomprarlo":4776,"Emp":4777,"diera":4778,"Ġgrave":4779,"Ġtramposo":4780,"Ġverdadero":4781,"Ġcurita":4782,"ĠcompaÃ±ero":4783,"Ġempujaba":4784,"ilos":4785,"Ġvayas":4786,"Dis":4787,"camos":4788,"Ġrompe":4789,"Ġtuviera":4790,"Arriba":4791,"Ġinoc":4792,"Ġsolos":4793,"Ġchulo":4794,"ĠpaÃ±ales":4795,"Ġpeludos":4796,"Ġder":4797,"cial":4798,"jen":4799,"ella":4800,"cep":4801,"Ã©ndose":4802,"ĠguardÃ³":4803,"Ġcorta":4804,"Ġviven":4805,"dora":4806,"Ġpeor":4807,"rÃ©":4808,"SÃ¡":4809,"Ġpusiera":4810,"Ġguapo":4811,"Ġmin":4812,"ramos":4813,"Ġtoallas":4814,"ĠayudarÃ¡":4815,"igo":4816,"ĠEsper":4817,"Ġelec":4818,"Ġmedio":4819,"ĠencogiÃ³":4820,"Ġdejaron":4821,"ĠcÃ³modo":4822,"Ġsentar":4823,"Ġsaludable":4824,"Necesitamos":4825,"Ġamista":4826,"Ġtermina":4827,"\"!":4828,"Ġanillo":4829,"Ġju":4830,"Ġdespertar":4831,"Ġgras":4832,"ĠDos":4833,"Ġoscuras":4834,"ĠpicÃ³":4835,"Ġcurioso":4836,"ĠayudarÃŃa":4837,"ĠPer":4838,"Ġpositivo":4839,"Llo":4840,"Ġparar":4841,"ĠTocÃ³":4842,"Ġhiciera":4843,"Ġtorres":4844,"Ġbarata":4845,"Ġquerido":4846,"Ġresfri":4847,"jeron":4848,"Ġhice":4849,"Ġcontarle":4850,"Nadie":4851,"Vuelve":4852,"ĠincreÃŃbles":4853,"Ġunidos":4854,"ĠbÃº":4855,"Lina":4856,"Ġfalsas":4857,"Ġsel":4858,"Ġtristeza":4859,"Ġdecep":4860,"Dale":4861,"Ġamistad":4862,"ines":4863,"ge":4864,"aste":4865,"bota":4866,"Ġsigue":4867,"Ġselva":4868,"damente":4869,"Ġmer":4870,"trÃ³n":4871,"Ġsalvajes":4872,"ĠCaminÃ³":4873,"Ġmanera":4874,"Ġrebota":4875,"ĠelectrÃ³n":4876,"ĠSubiÃ³":4877,"Ġrecuerda":4878,"Ġtemp":4879,"tendiÃ³":4880,"Ġcortas":4881,"Ġdeseaba":4882,"Ġrespirar":4883,"Ġpasos":4884,"Ch":4885,"ilÃ³":4886,"Boo":4887,"terri":4888,"ĠDebes":4889,"ĠÃºltima":4890,"mÃ¡g":4891,"ĠcomprarÃ©":4892,"Ġlistos":4893,"Ġimagen":4894,"Ġrotas":4895,"Ġestudiar":4896,"mÃ¡genes":4897,"ĠimÃ¡genes":4898,"Ġdistintos":4899,"ime":4900,"Papi":4901,"Ġdarme":4902,"ĠHa":4903,"Ġresfriado":4904,"Ġdorada":4905,"Ġminu":4906,"Ġnarices":4907,"Ġpaciente":4908,"ĠEsa":4909,"Ġentraron":4910,"Ġdan":4911,"ĠbÃºho":4912,"Ġllenas":4913,"Ġsuavemente":4914,"Ġaterri":4915,"ĠjarrÃ³n":4916,"tiene":4917,"bios":4918,"Ġbarato":4919,"ĠleÃŃa":4920,"ĠSarah":4921,"ĠsoÃ±ar":4922,"ĠescapÃ³":4923,"oof":4924,"Ġquemar":4925,"Ġlargos":4926,"Ġbum":4927,"JugÃ³":4928,"ĠEncon":4929,"ĠMaria":4930,"rano":4931,"Ġsoplaba":4932,"Ġdigital":4933,"ĠHicieron":4934,"ieza":4935,"Ġsag":4936,"aran":4937,"Ġgrandioso":4938,"Ġcorto":4939,"ComiÃ³":4940,"Ġfamilias":4941,"Ġgrasa":4942,"Ġvali":4943,"Ġcomparte":4944,"Ġandando":4945,"Ġceloso":4946,"Ġsientas":4947,"Ġmej":4948,"Ġtemprano":4949,"Ġhonrado":4950,"Ġtocando":4951,"biera":4952,"Comida":4953,"ing":4954,"Ġescamas":4955,"ĠllevarÃ©":4956,"ĠcreÃŃa":4957,"Ġatre":4958,"Ġhermosos":4959,"Ġapestoso":4960,"Ġestufa":4961,"Ġlabios":4962,"Ġideal":4963,"ort":4964,"ofia":4965,"bamos":4966,"Vale":4967,"Ġmusical":4968,"Ġvinieron":4969,"BUM":4970,"Ġsangre":4971,"Espero":4972,"ezÃ³":4973,"liz":4974,"torio":4975,"Ponte":4976,"Ġhacerte":4977,"Ġemocionante":4978,"Ġpocos":4979,"Ġacurruca":4980,"ables":4981,"Ġpateaba":4982,"Ġperdida":4983,"Ġcoloridos":4984,"uu":4985,"Dime":4986,"Ġpaso":4987,"Ġsemana":4988,"Ġcomiera":4989,"AyÃºdanos":4990,"Ġtron":4991,"ĠextendiÃ³":4992,"Ġencantada":4993,"Ġwoof":4994,"ĠcÃŃrculos":4995,"Esas":4996,"Ver":4997,"ĠpondrÃ©":4998,"Ġgranero":4999,"Ġcontinu":5000,"ĠÃºltimo":5001,"lara":5002,"Fuimos":5003,"Ġhombros":5004,"ĠatÃ³":5005,"ria":5006,"Ġjoven":5007,"Ġatento":5008,"PÃ¡jaro":5009,"ĠBaila":5010,"ÃŃste":5011,"Ġquien":5012,"Ġdespierto":5013,"como":5014,"Ġpropia":5015,"Ġmisterioso":5016,"Usa":5017,"Ġedu":5018,"Ġestamos":5019,"VolÃ³":5020,"ĠsoÃ±ado":5021,"Ġsilencioso":5022,"Ġrostro":5023,"Ġlee":5024,"AsÃŃ":5025,"ped":5026,"Ã©sped":5027,"Ġrega":5028,"ĠmuriÃ³":5029,"Ġpegajosa":5030,"ĠencantÃ³":5031,"rin":5032,"Moo":5033,"ior":5034,"Ġresbaladilla":5035,"Ġviva":5036,"ĠcÃ©sped":5037,"Ġpatearon":5038,"imas":5039,"ĠregalÃ³":5040,"Ġdurmieron":5041,"ny":5042,"Ġpartir":5043,"Ġcuatro":5044,"MÃŃrame":5045,"Ġcolumpiarse":5046,"Ġdeportes":5047,"Ġperd":5048,"Ġpaciencia":5049,"Puede":5050,"Ġtorpe":5051,"Am":5052,"Ġcomedor":5053,"ĠfrÃŃas":5054,"ĠFueron":5055,"AhÃŃ":5056,"ĠbaÃ±os":5057,"Ġleal":5058,"Ġllamar":5059,"Mia":5060,"Ġvacaciones":5061,"ĠcÃ³moda":5062,"ĠestirÃ³":5063,"Ġmora":5064,"dÃ©":5065,"Mientras":5066,"ĠcreyÃ³":5067,"Ġmudo":5068,"Hasta":5069,"mendo":5070,"Ġop":5071,"ĠextraÃ±os":5072,"Ġdormitorio":5073,"Ġescondernos":5074,"Desde":5075,"errÃ³":5076,"Ġpegado":5077,"adas":5078,"PÃŃo":5079,"Ġenfadado":5080,"Ġjugamos":5081,"laje":5082,"Ġabier":5083,"ĠadiÃ³s":5084,"Ġcubos":5085,"ĠfÃ¡ciles":5086,"Ġpeleaban":5087,"Ġtendr":5088,"ĠDentro":5089,"ĠBob":5090,"ĠOtros":5091,"Ġqu":5092,"igue":5093,"PodrÃŃa":5094,"Ġpocas":5095,"Ġnadaba":5096,"Ġgritar":5097,"Hoy":5098,"Ġabrazaba":5099,"Ġrespetar":5100,"Ġbravo":5101,"Ġalegres":5102,"ĠreÃŃ":5103,"Ġcaen":5104,"Ġgener":5105,"vido":5106,"Ġencantador":5107,"ĠaterrizÃ³":5108,"Ġbellas":5109,"tÃŃs":5110,"Ġbend":5111,"Ġtronco":5112,"Ġelegante":5113,"Ġsanto":5114,"Ġafort":5115,"mes":5116,"Ġadora":5117,"Ġpelaje":5118,"Ġgi":5119,"Ġrotos":5120,"nta":5121,"Ġpide":5122,"Ġayudando":5123,"Ġmezc":5124,"omen":5125,"ĠartÃŃs":5126,"enomen":5127,"Ġsecar":5128,"ĠSÃ³lo":5129,"Ġseria":5130,"ĠDice":5131,"Ġcruj":5132,"hay":5133,"lante":5134,"ario":5135,"Mimi":5136,"lando":5137,"ĠdescubriÃ³":5138,"Ġcompartirlo":5139,"Ġacurrucaron":5140,"ubio":5141,"xil":5142,"Ġaho":5143,"Ġpongas":5144,"Ġjugoso":5145,"Ġresta":5146,"Ġencerrado":5147,"Ġnadaron":5148,"Ġresto":5149,"Listo":5150,"Ġsientan":5151,"urante":5152,"Ġligero":5153,"wn":5154,"Ġalem":5155,"rown":5156,"sol":5157,"ĠapareciÃ³":5158,"Ġsabio":5159,"Ġtormentas":5160,"erg":5161,"Ġgata":5162,"ĠalejÃ³":5163,"Ġconfiable":5164,"xilio":5165,"Ġreci":5166,"Ġpura":5167,"ĠincÃ³mo":5168,"Ġtenerlo":5169,"Ġpop":5170,"Ġamaban":5171,"Ġaventura":5172,"Ġpuesto":5173,"Ġfina":5174,"Ġestos":5175,"Ġrubio":5176,"Ġesponjos":5177,"Ġleon":5178,"Ġasustes":5179,"Ġburbuja":5180,"Ġtremendo":5181,"Ġgordos":5182,"Ġorig":5183,"Ġsuficientes":5184,"Ġpreciosa":5185,"Corrieron":5186,"Ġdesliz":5187,"eloz":5188,"Ġsignificaba":5189,"Ġhoras":5190,"Ġradical":5191,"ĠcolocÃ³":5192,"Escuch":5193,"Ġvolaban":5194,"Ġfenomen":5195,"Ġrestaurante":5196,"Ġmaldita":5197,"son":5198,"ĠrecordÃ³":5199,"ĠpodrÃ¡s":5200,"Ġveloz":5201,"ĠBrown":5202,"jate":5203,"Ġcris":5204,"Ġbastante":5205,"Ġmod":5206,"Ġlavarse":5207,"Ġfalsos":5208,"Ġ\"Â¡Â¿":5209,"Hi":5210,"Ġsoplar":5211,"Ġenfadada":5212,"Ġpueblos":5213,"ĠPapito":5214,"ĠDibujÃ³":5215,"Ġpresion":5216,"Ġmensa":5217,"Ġcelosa":5218,"Ġing":5219,"ÃŃsimas":5220,"xic":5221,"sÃ©":5222,"ĠjugarÃŃa":5223,"Ġestupendo":5224,"var":5225,"chemos":5226,"ĠtapÃ³":5227,"Ġpuntos":5228,"Ġpremon":5229,"mela":5230,"Dormi":5231,"Ġmexic":5232,"Ġmaldito":5233,"Ġhecha":5234,"Ġcomerlos":5235,"ĠpaÃ±al":5236,"tan":5237,"Ã¡same":5238,"Ġmasticar":5239,"uff":5240,"Gato":5241,"Ġturno":5242,"Hicieron":5243,"Ġdicho":5244,"Ġlimpiando":5245,"Ġadmira":5246,"ĠsuspirÃ³":5247,"Ġexpl":5248,"Ġformas":5249,"Ġagotada":5250,"Ġcomes":5251,"esor":5252,"vÃŃan":5253,"Ġpelusa":5254,"ieran":5255,"Ġamigables":5256,"Ãºrate":5257,"Ġpasado":5258,"Abuela":5259,"otÃ³":5260,"ÃŃjate":5261,"ĠobservÃ³":5262,"Ġcallada":5263,"Ups":5264,"Ġdoble":5265,"Ġcinco":5266,"Ġgolpea":5267,"Ġcalles":5268,"Ġenvuel":5269,"Ġsusto":5270,"Ġosa":5271,"Ġrayas":5272,"Ã±ame":5273,"Ġcie":5274,"Pup":5275,"Ġpoderoso":5276,"ĠcomprendiÃ³":5277,"ĠÃºnica":5278,"uÃ©nta":5279,"ĠuniÃ³":5280,"cta":5281,"gue":5282,"PÃ¡same":5283,"Ġreun":5284,"Ġcompra":5285,"ĠCorre":5286,"Ġjugado":5287,"Ġsuelto":5288,"ĠpÃ¡g":5289,"yos":5290,"Ġatascada":5291,"iciÃ³n":5292,"ÃŃdate":5293,"Ãºdame":5294,"Ġfamosa":5295,"cia":5296,"turas":5297,"ĠAyudar":5298,"osible":5299,"tate":5300,"ĠlÃ³":5301,"ĠpremoniciÃ³n":5302,"Ġposible":5303,"Ġfino":5304,"Ġhombro":5305,"Ġmisteriosa":5306,"ejo":5307,"Ġcosquill":5308,"Ġbebieron":5309,"Auxilio":5310,"miau":5311,"ĠLlo":5312,"Gatito":5313,"Ġregresar":5314,"Ġbajaron":5315,"Ġcosquilleo":5316,"Ġpasaba":5317,"ĠchupÃ³":5318,"Ġsincera":5319,"Ġcerrado":5320,"Trae":5321,"ĠmamÃ¡s":5322,"TambiÃ©n":5323,"Ġcuidados":5324,"Perro":5325,"tien":5326,"Ġcolgando":5327,"Ġtocaron":5328,"Comp":5329,"ĠvomitÃ³":5330,"Ġartificial":5331,"Ġpopu":5332,"Ġingeni":5333,"Ġoreja":5334,"Ġquedarte":5335,"Ġentrada":5336,"ĠextraÃ±":5337,"Ġsuena":5338,"rrr":5339,"Ġricos":5340,"Ġrisa":5341,"Ġnota":5342,"Ġchino":5343,"Ġestante":5344,"tÃ©ntalo":5345,"ord":5346,"Ġoptimi":5347,"Ġapun":5348,"Ġbombero":5349,"Ġhubiera":5350,"Ġfenomenal":5351,"Ġllueve":5352,"Ġempieza":5353,"deras":5354,"ĠjuguetÃ³n":5355,"Ġdeporte":5356,"acÃ³":5357,"Ġlimones":5358,"Ġbrillo":5359,"Ġobtener":5360,"habÃŃa":5361,"Ġpegajoso":5362,"DÃ¡melo":5363,"ckey":5364,"Ġlanzar":5365,"Ġtontos":5366,"Ġexac":5367,"Venga":5368,"Mickey":5369,"sÃ©Ã±ame":5370,"Ġaren":5371,"ĠescogiÃ³":5372,"IntÃ©ntalo":5373,"Ġdec":5374,"Ġapagaron":5375,"ĠpÃ¡lido":5376,"Ġfrun":5377,"Ġce":5378,"Ġmalva":5379,"ĠPapi":5380,"ĠsaludÃ³":5381,"Ġlog":5382,"Ġlloras":5383,"Ġnaturales":5384,"Ġaguas":5385,"Ġminutos":5386,"ĠlucÃŃa":5387,"Ġcojo":5388,"Ġpresentimiento":5389,"Ġchistoso":5390,"Ġmantener":5391,"Ġens":5392,"Pueden":5393,"ĠharÃ©":5394,"ombra":5395,"Term":5396,"Ġpesadas":5397,"ĠRojo":5398,"Ġarenero":5399,"Regres":5400,"ernes":5401,"tamos":5402,"Ġviernes":5403,"Ġesco":5404,"ĠmÃŃos":5405,"Ã¡r":5406,"uciÃ³":5407,"Ġpoderosa":5408,"Ġrecordaba":5409,"ueves":5410,"Ġpelearon":5411,"zones":5412,"Ġarregla":5413,"uÃ©ntame":5414,"ĠbuenÃŃsimo":5415,"Sue":5416,"ĠDeb":5417,"ĠOl":5418,"ĠceÃ±o":5419,"ĠmuchÃŃsimas":5420,"Ġrode":5421,"ĠensuciÃ³":5422,"Ġensu":5423,"erÃŃas":5424,"Ġpeligro":5425,"jan":5426,"Ġhacerla":5427,"daste":5428,"Ġfabulosa":5429,"Ġextraord":5430,"ĠlÃ³gico":5431,"Ġcomercial":5432,"Ġbello":5433,"Ġprofun":5434,"Ġlocas":5435,"Ġcien":5436,"Ġmensaje":5437,"ĠfrunciÃ³":5438,"ĠclÃ¡s":5439,"Ġterminado":5440,"tengo":5441,"Ġbobo":5442,"risas":5443,"riste":5444,"ĠPerro":5445,"Ġmostrador":5446,"Ġequivocada":5447,"Ġantigua":5448,"tÃ©s":5449,"untas":5450,"Ġempezaron":5451,"Ġcaros":5452,"Ġalf":5453,"Ġcristi":5454,"Basta":5455,"ĠMuchos":5456,"ĠAunque":5457,"Ġdesayunar":5458,"cero":5459,"Ġchispas":5460,"Fin":5461,"ĠCa":5462,"Ġanima":5463,"urra":5464,"Comparte":5465,"ecto":5466,"Ġadorable":5467,"Ġadultos":5468,"dente":5469,"Ġoptimista":5470,"Echemos":5471,"ĠautÃ©n":5472,"Ġgr":5473,"cÃŃfico":5474,"ĠestÃ©n":5475,"Ġllenos":5476,"ĠAb":5477,"Ġencuentro":5478,"Ġalfombra":5479,"Ġmeti":5480,"Ġoh":5481,"ĠÃŃn":5482,"Ġapuesto":5483,"Ġdemasiadas":5484,"Ġmenos":5485,"Ġdistintas":5486,"Ġquis":5487,"Ġtio":5488,"Ġtemer":5489,"orden":5490,"Ġvista":5491,"Ġfiestas":5492,"Ġruidosos":5493,"Ġsupuesto":5494,"Ġdesorden":5495,"late":5496,"venido":5497,"Ġoriginal":5498,"Ġcolorida":5499,"diste":5500,"Ġestas":5501,"ĠmÃŃas":5502,"ÃŃos":5503,"AyÃº":5504,"Hici":5505,"ĠelectrÃ³nico":5506,"ĠcomÃºn":5507,"LlÃ©vame":5508,"Ġiglesias":5509,"Ġov":5510,"Ġrevol":5511,"Ġconsejos":5512,"Ġlunes":5513,"FÃŃjate":5514,"vaba":5515,"EncontrÃ©":5516,"Ġpreparado":5517,"Ġciego":5518,"ĠalemÃ¡n":5519,"ĠTito":5520,"Ġimposible":5521,"Ġenamorada":5522,"Ġbarrio":5523,"Ġasombros":5524,"ĠEsperÃ³":5525,"Ġjardines":5526,"Ġolvides":5527,"Hurra":5528,"Ġdeportivo":5529,"Ġlentamente":5530,"Que":5531,"VerÃ¡s":5532,"Ġverlas":5533,"Ġpeli":5534,"ĠespaÃ±ola":5535,"ĠquiÃ©n":5536,"ĠcocinÃ³":5537,"guera":5538,"Ġcalmado":5539,"Ġovillo":5540,"Ġatrevido":5541,"ril":5542,"Tranquilo":5543,"Sorpresa":5544,"Ġentera":5545,"teo":5546,"Ġabrieron":5547,"Ġcapaz":5548,"coles":5549,"Ġpuro":5550,"ĠparecÃŃan":5551,"Ġteniendo":5552,"ĠharÃ¡n":5553,"quito":5554,"Ã¡llate":5555,"Ġsimples":5556,"Ġdestro":5557,"Ã©rcoles":5558,"Ġinventado":5559,"Ġacerques":5560,"Ġrodillas":5561,"Ġmenor":5562,"ĠinventÃ³":5563,"Desp":5564,"ĠdoÃ±a":5565,"EnsÃ©Ã±ame":5566,"Nunca":5567,"Ġhablaron":5568,"elici":5569,"Ġrezar":5570,"CorrÃŃa":5571,"ĠComp":5572,"DÃ¡mela":5573,"Ġmaleta":5574,"Ġatado":5575,"Ġmodos":5576,"Ġdelicado":5577,"pes":5578,"Ġconfiado":5579,"Ġfatal":5580,"Ġcomiste":5581,"esoros":5582,"diendo":5583,"Ġasiento":5584,"Ġcaminaban":5585,"reras":5586,"Ġcarreras":5587,"Ġvaya":5588,"Ambos":5589,"mien":5590,"Ġcorazones":5591,"Ġescapar":5592,"ĠdivertÃŃan":5593,"ĠdivertÃŃ":5594,"uses":5595,"Ġquemado":5596,"Ġpudiera":5597,"Ġsanta":5598,"ĠdarÃ¡":5599,"Ġverte":5600,"Ġencantadora":5601,"Hazlo":5602,"Ġadmirable":5603,"ĠmiÃ©rcoles":5604,"Ġmartes":5605,"Ġharto":5606,"!,":5607,"idamente":5608,"Ġcorren":5609,"Ġtercer":5610,"hh":5611,"Canta":5612,"Ġdescanso":5613,"Ġpreparada":5614,"Ġdire":5615,"inta":5616,"Papito":5617,"Ġpermi":5618,"Ġayudarnos":5619,"Ġpropio":5620,"ĠestÃºpido":5621,"Ġflotaba":5622,"Ġtesoros":5623,"Ġboc":5624,"inaba":5625,"ĠpÃ¡lida":5626,"Ġcarici":5627,"Ġmuerde":5628,"ĠCo":5629,"Ġpoca":5630,"sito":5631,"ĠfantÃ¡stica":5632,"jeros":5633,"Ġsuspen":5634,"bable":5635,"Ġpreciosas":5636,"Ġautobuses":5637,"Hazme":5638,"Ġpensaron":5639,"Ġbrutal":5640,"Ġquieras":5641,"Ġcabezas":5642,"ĠPaco":5643,"Caminaron":5644,"Ġeducado":5645,"Usar":5646,"ĠextraÃ±as":5647,"ĠcomÃŃan":5648,"Ġsencillo":5649,"traron":5650,"bia":5651,"Ġusado":5652,"olar":5653,"Ġpaseando":5654,"gueme":5655,"EncontrÃ³":5656,"Ġquedara":5657,"ApÃºrate":5658,"Delici":5659,"Zum":5660,"Ġestuvieran":5661,"cÃºl":5662,"Ġnavegar":5663,"Ġmoda":5664,"ee":5665,"ĠsentÃŃ":5666,"ĠaÃ±o":5667,"Ġprome":5668,"Ġganador":5669,"Ġlistas":5670,"Ġherida":5671,"Ġmente":5672,"Calla":5673,"Ġpopular":5674,"ile":5675,"Ġsonaba":5676,"Ġconocer":5677,"Ġcolorado":5678,"Ġsegunda":5679,"Ġdecepcion":5680,"CÃ¡llate":5681,"Ġquedaba":5682,"Ġpresentes":5683,"Esper":5684,"bam":5685,"Ġhorribles":5686,"ĠrÃ¡pidamente":5687,"ĠBailaron":5688,"ĠClara":5689,"Ġensuci":5690,"Ġmasa":5691,"Ġexacta":5692,"ĠtraÃŃa":5693,"Esos":5694,"MÃŃralo":5695,"Ġsimi":5696,"ombres":5697,"Ġllevarla":5698,"Ġfinalmente":5699,"Ġtiraba":5700,"Ġvestida":5701,"Ġdibuja":5702,"Fuera":5703,"Ġligera":5704,"Ġanimados":5705,"ĠLlegÃ³":5706,"Ġsuelta":5707,"Tiene":5708,"Ġconseguir":5709,"Ġesponjosas":5710,"ĠCompartir":5711,"ĠdÃ©biles":5712,"Vol":5713,"Ġgramos":5714,"Jue":5715,"ĠdespidiÃ³":5716,"HabÃŃamos":5717,"Ġafiladas":5718,"peme":5719,"Ġprincipal":5720,"ĠridÃŃcula":5721,"Ġbrillaban":5722,"ĠmasticÃ³":5723,"ĠEscuchÃ³":5724,"Quer":5725,"Ġenter":5726,"Ġinocente":5727,"ĠperdÃŃ":5728,"Ves":5729,"Ġperri":5730,"ĠEstÃ¡n":5731,"Ġduros":5732,"oÃ±a":5733,"Dul":5734,"Ġbocadillos":5735,"Ġpasaron":5736,"Ġlavarte":5737,"Ġsordo":5738,"ĠFin":5739,"Comer":5740,"Ġnombres":5741,"Ġcortos":5742,"Ġcap":5743,"apa":5744,"Ġhola":5745,"Ġcomerse":5746,"Ġnormales":5747,"Ġratoncito":5748,"cÃºlpeme":5749,"Ġherra":5750,"ĠLu":5751,"Ġherramien":5752,"uck":5753,"Ġplop":5754,"Gus":5755,"Ġduermen":5756,"uffy":5757,"ĠAbriÃ³":5758,"menda":5759,"Ġdecepcionado":5760,"eric":5761,"ĠelÃ©ctrica":5762,"Ġpelirro":5763,"Ġbrin":5764,"Ġvalioso":5765,"Todas":5766,"Ġfamiliar":5767,"Ġloro":5768,"Ġintens":5769,"Ġcolas":5770,"Ġtuyas":5771,"risto":5772,"CuÃŃdate":5773,"CuÃ©ntame":5774,"vÃŃ":5775,"luffy":5776,"ĠcÃ³mico":5777,"Ġameric":5778,"Ġusando":5779,"ucristo":5780,"esucristo":5781,"guau":5782,"Ġreina":5783,"Inten":5784,"Ġecon":5785,"Podr":5786,"ĠPuede":5787,"ĠsonreÃŃr":5788,"Ġcuad":5789,"ĠRosa":5790,"ĠtÃŃp":5791,"Ġtemblaba":5792,"ĠolÃŃan":5793,"Ġdiciendo":5794,"Ġon":5795,"Zzz":5796,"Ġintentar":5797,"embre":5798,"Ġenojaron":5799,"zada":5800,"ĠrÃŃos":5801,"Dejen":5802,"Ġescuchaba":5803,"Ġafecto":5804,"Ġagujeros":5805,"Ġvuelan":5806,"Ġsuyas":5807,"Ġbang":5808,"Huele":5809,"Ġdesesp":5810,"tiagu":5811,"Ġpuntiagu":5812,"SÃŃgueme":5813,"Ġjueves":5814,"Ġlanzaba":5815,"mpoco":5816,"otal":5817,"ĠcomÃŃ":5818,"Ġacab":5819,"Ġtampoco":5820,"Ġtuya":5821,"Dulces":5822,"Ġenojados":5823,"Algo":5824,"Ġescoba":5825,"Ġderri":5826,"ince":5827,"Ġsalvaje":5828,"Ġgusto":5829,"Ġgeneroso":5830,"Ġacariciarlo":5831,"Ġmane":5832,"tac":5833,"uÃ©l":5834,"SerÃ¡s":5835,"ĠpresionÃ³":5836,"ĠSonriÃ³":5837,"ĠincÃ³modo":5838,"odÃ³":5839,"rÃŃ":5840,"Ġdiciembre":5841,"Ġcreativo":5842,"ticaba":5843,"Ġnecesitaban":5844,"ĠcontinuÃ³":5845,"Ġdecente":5846,"Ġcreo":5847,"ĠperdÃ³n":5848,"Ġentriste":5849,"ĠCogiÃ³":5850,"Ġcomunes":5851,"Ġabrazos":5852,"Ġincl":5853,"Ġvalientes":5854,"Ġlej":5855,"Ġcrayones":5856,"Ġbastantes":5857,"Car":5858,"incluso":5859,"denme":5860,"Ġgirar":5861,"Ġponerlo":5862,"Ġinteresada":5863,"Duerme":5864,"Ġapretado":5865,"estaba":5866,"Ġcantan":5867,"Ġsuce":5868,"Ġmiran":5869,"ĠoÃŃdos":5870,"Ġcuriosa":5871,"Us":5872,"Ġpijamas":5873,"Ġsostuvo":5874,"Ġinfor":5875,"Ġduen":5876,"Ġpracticar":5877,"ĠÃŃnti":5878,"ĠvivÃŃan":5879,"uestra":5880,"ĠpicoteÃ³":5881,"lÃ¡n":5882,"mada":5883,"Apa":5884,"ĠapuntÃ³":5885,"Ġbailaban":5886,"Ġfemen":5887,"Batman":5888,"Ġcuadro":5889,"Ġimportaba":5890,"icto":5891,"Ġcuidarlo":5892,"Ġerro":5893,"ĠPor":5894,"Ġapro":5895,"Ġdas":5896,"Ġbendito":5897,"ĠirÃ¡":5898,"quenlo":5899,"Ġdelgada":5900,"Ġfuriosa":5901,"vete":5902,"Ġmejillas":5903,"Ġcerd":5904,"Queremos":5905,"Ġpreguntar":5906,"Justo":5907,"unado":5908,"Ġpatadas":5909,"Ġentien":5910,"tara":5911,"Ġpajaritos":5912,"Ġtrabajando":5913,"Ġcomple":5914,"Ġbesa":5915,"Ġinteresante":5916,"ye":5917,"Ġflotando":5918,"Ġmetida":5919,"Ġsaben":5920,"Ġadelan":5921,"lÃ¡ntico":5922,"Ġquince":5923,"Ġsincero":5924,"ĠrecordarÃŃa":5925,"DiscÃºlpeme":5926,"Vimos":5927,"Despierta":5928,"Fuego":5929,"Ġcomenzaron":5930,"Ġolvidado":5931,"Ġadelante":5932,"Ġcompraron":5933,"Ġlami":5934,"ĠSacÃ³":5935,"icÃŃa":5936,"Ġladrando":5937,"Ġjuegas":5938,"ictoria":5939,"Ġinteresado":5940,"Ġmeses":5941,"Ġne":5942,"ĠpolicÃŃa":5943,"Ġlengua":5944,"Ġsagrada":5945,"sla":5946,"GritÃ³":5947,"Ġdesaparecido":5948,"Ġantigu":5949,"Ġnatural":5950,"Ġdevolver":5951,"Ġestropeado":5952,"ĠenfermÃ³":5953,"Ġpreparar":5954,"Ġsombras":5955,"Ġdistinto":5956,"Ġdelicada":5957,"Ġllevarte":5958,"Ġafortunado":5959,"Ġpelirroja":5960,"Ġenero":5961,"LlovÃŃa":5962,"ĠlÃ¡pices":5963,"todos":5964,"ĠLl":5965,"QuerÃŃan":5966,"Ġlastimar":5967,"Ġelegir":5968,"Ġcorras":5969,"vÃŃd":5970,"Ġvivo":5971,"ĠasombrÃ³":5972,"Uh":5973,"Ġenamorado":5974,"Ġsuperh":5975,"Ġech":5976,"Ġestado":5977,"Ġacaricia":5978,"Hablar":5979,"Ġmoverla":5980,"Golpe":5981,"Ġmanguera":5982,"Ġperdono":5983,"fan":5984,"zquier":5985,"Sube":5986,"Ġtierno":5987,"Ġsentados":5988,"Ġabierto":5989,"brela":5990,"Auch":5991,"Ġdisfrutar":5992,"Ġisla":5993,"Ġapaga":5994,"Ġizquier":5995,"ĠBenny":5996,"Veo":5997,"Ġfeos":5998,"ĠsoÃ±ando":5999,"ĠAt":6000,"Ġletras":6001,"AprendÃŃ":6002,"riger":6003,"Ġrefriger":6004,"Ġcochecito":6005,"ĠpuÃ±os":6006,"Ġagradecida":6007,"Ġmuev":6008,"Ġsutil":6009,"Ġevi":6010,"Cuidar":6011,"Ġnerviosa":6012,"Ġmete":6013,"imp":6014,"ximo":6015,"ĠseÃ±a":6016,"Ġvienen":6017,"tubre":6018,"Ġmojarse":6019,"ĠCantaba":6020,"eme":6021,"Ġabrirlo":6022,"caba":6023,"Ġsalen":6024,"Ġencontramos":6025,"orados":6026,"Ġmel":6027,"Ġbolso":6028,"lame":6029,"ĠsuperhÃ©ro":6030,"Ġbajas":6031,"Ġmantas":6032,"Ġponerla":6033,"Ġpesados":6034,"bede":6035,"Ġonce":6036,"Ġhun":6037,"Ayudo":6038,"ĠBebiÃ³":6039,"tÃ¡":6040,"fue":6041,"ĠentristeciÃ³":6042,"Ġpoderos":6043,"Ġcaricia":6044,"ĠayÃºdame":6045,"ĠpÃ©":6046,"Ġdetiene":6047,"ĠVol":6048,"ĠzumbÃ³":6049,"Ġlastimado":6050,"Ġmuerto":6051,"Ġvarios":6052,"ÃŃdo":6053,"ĠBailÃ³":6054,"ierra":6055,"Ġcomprarte":6056,"Ġobvio":6057,"Ġmoral":6058,"Ġancho":6059,"Ġmovi":6060,"Ġpueda":6061,"Perdona":6062,"ĠAtlÃ¡ntico":6063,"Ġsabes":6064,"laron":6065,"ĠJuega":6066,"drÃ¡":6067,"Perdonen":6068,"Ġjuegue":6069,"tarÃ¡":6070,"Pare":6071,"Ġhaya":6072,"Ġagotado":6073,"sorpresa":6074,"Ġregazo":6075,"Ġayudaste":6076,"ĠTra":6077,"tienes":6078,"Ġolvidaron":6079,"Ġnecesario":6080,"Ġadivina":6081,"UsarÃ©":6082,"Ġseis":6083,"ĠserÃ¡s":6084,"Vieron":6085,"Ġcontes":6086,"Ġbufan":6087,"Ġjus":6088,"uÃ©ltalo":6089,"AyudarÃ©":6090,"Ġolvida":6091,"ĠConejo":6092,"regun":6093,"Ġsencilla":6094,"ĠrezÃ³":6095,"Ġsacarlo":6096,"ĠtemblÃ³":6097,"irp":6098,"Ġayudamos":6099,"Ġabril":6100,"fas":6101,"Ġtotal":6102,"ĠcaÃŃan":6103,"entos":6104,"Ġcontaron":6105,"Ġreunidos":6106,"Sup":6107,"Ġbalones":6108,"ĠPon":6109,"Ġmismos":6110,"Ok":6111,"ĠMira":6112,"Ġmue":6113,"Ġtremenda":6114,"Bailamos":6115,"uimos":6116,"Ġbusco":6117,"ĠcrayÃ³n":6118,"AyÃºdenme":6119,"Ġpantalla":6120,"Ġcompleto":6121,"Ġavi":6122,"Ġdando":6123,"Ġjunio":6124,"Ġcayendo":6125,"Ġrefrigerador":6126,"Ġbromas":6127,"Ġenvuelto":6128,"Ġbanca":6129,"ĠToc":6130,"Ġcerradas":6131,"Ġcorrecta":6132,"Ġdiec":6133,"ĠsostenÃŃa":6134,"ĠsalvÃ³":6135,"Ġru":6136,"iocho":6137,"Ġdieciocho":6138,"gosto":6139,"Toca":6140,"Ãģ":6141,"Ġdirecto":6142,"Ġsalvado":6143,"Ġescuchando":6144,"Ġpunto":6145,"Ġpicar":6146,"Ġbufanda":6147,"ak":6148,"quina":6149,"entÃŃa":6150,"mb":6151,"ĠDes":6152,"Ġtreinta":6153,"Ġjuz":6154,"Ġparado":6155,"cieron":6156,"Ġagosto":6157,"Ġaplaudieron":6158,"Ġsalp":6159,"Ġdiera":6160,"ĠrecibiÃ³":6161,"Ġpref":6162,"Ġoctubre":6163,"Ġacostado":6164,"Ã©l":6165,"ĠcubriÃ³":6166,"He":6167,"Ġpasan":6168,"Ġvivos":6169,"ĠseguÃŃan":6170,"Ġlam":6171,"queak":6172,"Debo":6173,"Ġsabrosa":6174,"ĠtendrÃ¡s":6175,"Ġclara":6176,"Ġmarzo":6177,"Brrr":6178,"Dios":6179,"Ġbananas":6180,"Ġemba":6181,"veni":6182,"tad":6183,"ĠJugamos":6184,"Superman":6185,"Ġalcanzarlas":6186,"Ġbrillar":6187,"gra":6188,"ĠsentirÃ¡s":6189,"Ġsabrosas":6190,"Ġpeleados":6191,"ĠprotegerÃŃa":6192,"SÃ¡quenlo":6193,"Ġtomado":6194,"Delicioso":6195,"Ġsensa":6196,"Ġduende":6197,"ĠTimmy":6198,"Ġjuzgar":6199,"Ġcorra":6200,"Ġquietos":6201,"cur":6202,"SonÃ³":6203,"ĠSofia":6204,"Ġlunar":6205,"Ġperrita":6206,"Baja":6207,"SuÃ©ltalo":6208,"solu":6209,"Ġpegarle":6210,"Ġconver":6211,"ĠescondÃŃa":6212,"Ġdada":6213,"ĠsensaciÃ³n":6214,"ĠCayÃ³":6215,"TomÃ³":6216,"quilos":6217,"dis":6218,"Ġquerer":6219,"ĠDan":6220,"Pens":6221,"raÃ±a":6222,"Ġhacerlos":6223,"vÃ¡n":6224,"Ġenerg":6225,"Ġcompren":6226,"Pan":6227,"ĠmediodÃŃa":6228,"ĠDijeron":6229,"Ġmalvados":6230,"Ġesconderme":6231,"Ġgrito":6232,"ĠcortÃ©s":6233,"Ġentiende":6234,"Ġconcur":6235,"ĠenseÃ±arÃ©":6236,"Ġpoquito":6237,"Ġsolar":6238,"Ġproteg":6239,"ĠFluffy":6240,"Ġrevolo":6241,"Qu":6242,"Ġlunares":6243,"Ġmoviendo":6244,"vÃ¡ntate":6245,"Ġmexicano":6246,"Zas":6247,"guen":6248,"ĠenergÃŃa":6249,"dura":6250,"âĢĭ":6251,"ĠencontrarÃŃa":6252,"Ġgiraba":6253,"Ġabiertas":6254,"Ġembaraz":6255,"Ġtires":6256,"ĠvacÃŃas":6257,"ĠsuperhÃ©roe":6258,"Ġabsolu":6259,"Ġconcurso":6260,"Deja":6261,"Hice":6262,"Ġgolpeaba":6263,"Ġimaginar":6264,"Ġpeleas":6265,"Ġllamados":6266,"ĠfrÃŃos":6267,"venidos":6268,"Ġcangrejos":6269,"ĠdarÃŃa":6270,"Ġfrito":6271,"erado":6272,"Ġlocos":6273,"Ġusarla":6274,"Ġfin":6275,"zul":6276,"ĠverÃ©":6277,"Ġsusur":6278,"HabÃŃan":6279,"Puso":6280,"Ayuden":6281,"Ġsimilar":6282,"Ġharemos":6283,"Ġcaerse":6284,"Ġmayores":6285,"Ġlejano":6286,"Ġtontas":6287,"Ġcuidadosa":6288,"ĠbÃ¡s":6289,"Ġdemasiada":6290,"Ġescolar":6291,"vÃŃdelo":6292,"cri":6293,"ĠAn":6294,"Ġevidente":6295,"Ġahogado":6296,"Ġrevis":6297,"Ding":6298,"Vaya":6299,"tadas":6300,"TarzÃ¡n":6301,"regÃ³":6302,"Ġvendaje":6303,"ĠpreguntÃ©":6304,"Algun":6305,"viste":6306,"Ġsaltaban":6307,"ĠverÃŃa":6308,"ĠsÃ¡ndwiches":6309,"Ġcielos":6310,"Ġguarda":6311,"ieras":6312,"ĠtraÃŃdo":6313,"Ġvid":6314,"ĠÃºltimas":6315,"Ġrompiera":6316,"venida":6317,"Ġmayo":6318,"Ġatenta":6319,"rido":6320,"Ġvivieron":6321,"Ġpegada":6322,"Ġasusto":6323,"Ġtiraron":6324,"ĠpÃ¡ginas":6325,"Ġayude":6326,"Ġgritaba":6327,"Ġfu":6328,"ĠartÃŃstico":6329,"Ġjugaran":6330,"daron":6331,"ĠPregun":6332,"Ġdebo":6333,"dero":6334,"Ġsaludo":6335,"Rojo":6336,"Ġgustado":6337,"ĠEmpezÃ³":6338,"ĠEncontrÃ³":6339,"Ġsoltera":6340,"Ġjirafas":6341,"ĠPas":6342,"Ġgolpeando":6343,"Ġfrijol":6344,"Tienen":6345,"ĠLlegaron":6346,"Ġllamas":6347,"talos":6348,"Ġdistinta":6349,"Ġlimpiaron":6350,"SoÃ±Ã³":6351,"ini":6352,"Ġredondos":6353,"DÃŃa":6354,"Ġclaras":6355,"capa":6356,"Ġrespeto":6357,"ciona":6358,"ĠprometiÃ³":6359,"Ġasombrosa":6360,"fini":6361,"Ġpresente":6362,"Ġcorral":6363,"Ġtercera":6364,"Ġembarazoso":6365,"Uf":6366,"Ġsacarla":6367,"Sa":6368,"CayÃ³":6369,"ĠpÃ©talos":6370,"Ġjulio":6371,"Ġmitad":6372,"Ġdivertimos":6373,"Ġsorbo":6374,"Ġenamorados":6375,"ĠclÃ¡sico":6376,"Ġdelica":6377,"Ġprivado":6378,"ĠpÃŃo":6379,"Ġdesesperado":6380,"Ġsir":6381,"Ġfutu":6382,"Ġverdaderos":6383,"Ġfuturo":6384,"tete":6385,"Ġmoderno":6386,"Ġirte":6387,"inÃ©":6388,"ĠNoel":6389,"Ġesperaron":6390,"!\"!":6391,"Ġpobrecito":6392,"Ġcreerlo":6393,"Ġhombres":6394,"Ġsuspendido":6395,"Ġrubia":6396,"Ġhueco":6397,"Ġmere":6398,"Ġayudaban":6399,"Ġrasgu":6400,"BebÃ©":6401,"zan":6402,"ĠĠ":6403,"ink":6404,"Ġfoga":6405,"presas":6406,"AllÃŃ":6407,"ezamos":6408,"Ġmorado":6409,"Ġtocara":6410,"Ġpegues":6411,"Ġciega":6412,"ĠSqueak":6413,"rilla":6414,"Ġherramientas":6415,"Ġprogra":6416,"Ġcolumpiarme":6417,"Ġmaravillosas":6418,"Ġsorpresas":6419,"ĠsonreÃŃa":6420,"ĠAmbas":6421,"Damos":6422,"Ġprefer":6423,"cel":6424,"Hicimos":6425,"ĠJuntas":6426,"Ġcuidando":6427,"Ġmanejar":6428,"Ġbalde":6429,"ĠdeberÃŃas":6430,"Rec":6431,"Ġtrampa":6432,"Ġingenioso":6433,"ĠJuanita":6434,"Ġfogata":6435,"Ġpermiso":6436,"Ġfunciona":6437,"ĠsimpÃ¡tica":6438,"ĠJesucristo":6439,"Ġencendida":6440,"Ġenteras":6441,"Ġplana":6442,"ĠmoÃ±o":6443,"acto":6444,"esos":6445,"Ġimaginado":6446,"lares":6447,"Ã¡b":6448,"Ġadelantado":6449,"davÃŃa":6450,"ĠpacÃŃfico":6451,"Ġtanque":6452,"ĠrevisÃ³":6453,"Sigue":6454,"vimos":6455,"ĠoÃŃdo":6456,"Ġllegando":6457,"jaron":6458,"Ġdespidieron":6459,"Ġcuido":6460,"Ġmigas":6461,"Ġcruzar":6462,"Ġleyeron":6463,"ĠLlevaba":6464,"HablarÃ©":6465,"Ġobede":6466,"Ġang":6467,"ĠaferrÃ³":6468,"Ġayudarles":6469,"Ġsabroso":6470,"ĠFinn":6471,"Ġincapa":6472,"Ġlava":6473,"Ãģbrela":6474,"rados":6475,"Ġterminar":6476,"Ġvarias":6477,"Ġbaratos":6478,"Ġmaullaba":6479,"ĠdÃ³":6480,"Ġjusta":6481,"Ġmismas":6482,"Ġdefini":6483,"GanÃ©":6484,"ĠMaÃ±ana":6485,"Ġsalidas":6486,"ĠpaÃ±uelo":6487,"Hue":6488,"ĠSoÃ±":6489,"ĠgirÃ³":6490,"uÃ©vete":6491,"Ġalumnos":6492,"Ġpolvo":6493,"Ġconfiar":6494,"Ã¡blame":6495,"Ġmojados":6496,"Ġdejaba":6497,"Ġbajando":6498,"ĠUs":6499,"Ġusaron":6500,"ĠDebemos":6501,"Hora":6502,"ĠRec":6503,"Ġsienten":6504,"Ġsonar":6505,"ĠEmpu":6506,"Ġcuernos":6507,"damos":6508,"Ġsegui":6509,"Ġmantuvo":6510,"Ġpuros":6511,"PerdÃ³neme":6512,"Ġentender":6513,"Rom":6514,"Ġordenado":6515,"Ġvidrio":6516,"PUM":6517,"Ġmercado":6518,"ĠMateo":6519,"Ġrisas":6520,"terior":6521,"Ġcortado":6522,"Ġmoverlo":6523,"Ġgastado":6524,"Ġregresa":6525,"Como":6526,"Ġrebotar":6527,"anes":6528,"Ġluchar":6529,"Ġcuesta":6530,"Ġdecidido":6531,"Ġincapaz":6532,"venil":6533,"Ġcaderas":6534,"Ġsaco":6535,"ĠÃŃntimo":6536,"PodÃŃan":6537,"Ġprograma":6538,"ĠsubÃŃa":6539,"Ġpedirle":6540,"Ġmeter":6541,"ĠrÃ¡pidas":6542,"Ġgolpes":6543,"LevÃ¡ntate":6544,"Ġjuvenil":6545,"Ġintenso":6546,"Ġarb":6547,"Ġtranquilos":6548,"ĠK":6549,"SabÃŃas":6550,"Ġlloraron":6551,"Ġtoboganes":6552,"Ġterminaron":6553,"Ponlo":6554,"Ġganado":6555,"Ġcep":6556,"ĠMar":6557,"Ġardillas":6558,"Comemos":6559,"Ġrecog":6560,"Ġrefle":6561,"PensÃ³":6562,"Ġcrujientes":6563,"MÃŃrate":6564,"Olvi":6565,"Ġfamosos":6566,"Ġlogrado":6567,"ĠtÃŃpico":6568,"ĠtelaraÃ±a":6569,"Ġrin":6570,"Ġdormidos":6571,"Ġperdidos":6572,"Llegaron":6573,"QuÃ©date":6574,"Ġmadres":6575,"Ġpuen":6576,"Ġturn":6577,"MuÃ©vete":6578,"ĠcontestÃ³":6579,"itÃ¡n":6580,"Ġerrores":6581,"lash":6582,"Ġparados":6583,"caste":6584,"Ġcharcos":6585,"Sonaba":6586,"Ġmelena":6587,"Ġsiren":6588,"Ġantiguo":6589,"ÃŃstete":6590,"Ġacercaba":6591,"Ġcerrados":6592,"Ġperfectos":6593,"ĠcrecÃŃa":6594,"Ġdivirtiendo":6595,"ĠcapitÃ¡n":6596,"Ġvarita":6597,"Ġsostener":6598,"calo":6599,"Ġenfermos":6600,"Ġguapa":6601,"ĠPod":6602,"Ġarreglada":6603,"OlvÃŃdelo":6604,"Ã¡talo":6605,"jug":6606,"Ġrecup":6607,"ki":6608,"ĠPrimero":6609,"Pronto":6610,"Ġvictoria":6611,"Ġsex":6612,"Ġtomas":6613,"dia":6614,"Ġtama":6615,"sintiÃ³":6616,"ĠJulio":6617,"dimos":6618,"ĠPreguntÃ³":6619,"ĠGri":6620,"Ġencontraste":6621,"uzz":6622,"plash":6623,"Ġgraciosa":6624,"ĠempujÃ³n":6625,"Lluvia":6626,"Ġhayas":6627,"Perdiste":6628,"Gru":6629,"ĠconocÃŃa":6630,"CuidarÃ©":6631,"Ġpuente":6632,"Ġparecido":6633,"ĠsentÃŃan":6634,"Ġartificiales":6635,"vada":6636,"Ġpapeles":6637,"ĠreÃŃmos":6638,"GanarÃ©":6639,"Ġactiva":6640,"ĠBusca":6641,"yera":6642,"ĠmaÃºl":6643,"Duele":6644,"ĠOlvi":6645,"erna":6646,"ĠpreocupÃ³":6647,"Ġestuvieron":6648,"Pepe":6649,"Puf":6650,"Ġhablaban":6651,"Ġprincipio":6652,"Ġmargaritas":6653,"Ġguardado":6654,"Ġaviones":6655,"tÃº":6656,"ĠMiraron":6657,"Ġdebido":6658,"Ġpreguntaron":6659,"Ġgemelo":6660,"Ġmorir":6661,"Ġencantaron":6662,"Ġamado":6663,"Ġpreocupara":6664,"arte":6665,"Ġquem":6666,"bres":6667,"Ġcristiano":6668,"Ġapagada":6669,"Ġbib":6670,"ĠPens":6671,"ĠpagÃ³":6672,"ĠconociÃ³":6673,"Ġarrastra":6674,"Ġnovio":6675,"Ġcambiado":6676,"ĠNecesitas":6677,"jÃ©":6678,"ĠolvidarÃŃa":6679,"ĠBo":6680,"Ġmenudo":6681,"uvieron":6682,"Ġsentirte":6683,"Ġpanqueque":6684,"Ġrayos":6685,"gual":6686,"ÃŃmos":6687,"Ġgritando":6688,"Ġmadura":6689,"ĠcavÃ³":6690,"Ġsaludables":6691,"Ġpintado":6692,"Ġpatata":6693,"Mucho":6694,"Ã±anas":6695,"escuchÃ³":6696,"Ġresponde":6697,"Ġquemada":6698,"Ġmetal":6699,"Ġmordis":6700,"Ġexcelentes":6701,"ĠTienen":6702,"Ġencender":6703,"ĠHace":6704,"Ġlamer":6705,"Buena":6706,"Man":6707,"aremos":6708,"Ġsentimos":6709,"Ġapare":6710,"Ġenojadas":6711,"Busquen":6712,"Ġaman":6713,"Nosotros":6714,"ĠdecÃŃan":6715,"OlÃŃa":6716,"Ġhaz":6717,"MirÃ¡":6718,"Ġciertas":6719,"ĠaraÃ±Ã³":6720,"Maria":6721,"Ġterminada":6722,"Ġjugosa":6723,"Ġranas":6724,"Ġbalanceaba":6725,"Ġcuerdas":6726,"Ġboom":6727,"Ġfuente":6728,"ĠvÃŃboras":6729,"jÃ¡":6730,"ĠserÃŃan":6731,"Pudo":6732,"Ġuva":6733,"ĠÃºtiles":6734,"Ġadivinar":6735,"culpa":6736,"Ġquisiera":6737,"Ġdigas":6738,"Ġsalud":6739,"Ġcreciendo":6740,"ĠeconÃ³mico":6741,"Ġintenta":6742,"ĠestarÃ©":6743,"Ġespinas":6744,"Pido":6745,"Ġsuperfici":6746,"Dormir":6747,"eno":6748,"Ġtrabajaron":6749,"Ġsuperior":6750,"ientos":6751,"Ġpuse":6752,"Ġdemasiados":6753,"HÃ¡blame":6754,"Ġmanten":6755,"Ġhuel":6756,"stoso":6757,"PodrÃ©":6758,"Ġamistoso":6759,"Sop":6760,"Ġpusimos":6761,"ctos":6762,"Ġutil":6763,"Ġllegamos":6764,"Ġllan":6765,"Ġreflejo":6766,"Parece":6767,"ĠhundiÃ³":6768,"Ġgrupo":6769,"bana":6770,"ĠAyudÃ³":6771,"Ġverdadera":6772,"RegresarÃ©":6773,"Otra":6774,"ĠmaÃ±anas":6775,"Ġvomitar":6776,"ĠPico":6777,"Ġdestrozado":6778,"Ġinfan":6779,"arme":6780,"AjÃ¡":6781,"Ġsexto":6782,"Gal":6783,"ĠLucas":6784,"tÃŃn":6785,"Tranquila":6786,"Ġperfectas":6787,"Ġhabitaciones":6788,"ĠLlueve":6789,"Ġamericana":6790,"Ġpica":6791,"illy":6792,"Ã©ctar":6793,"Ġrecuper":6794,"TÃ³":6795,"Ġmarcado":6796,"Ġmedia":6797,"Sofia":6798,"ĠbaÃ±arse":6799,"Ġseguras":6800,"selo":6801,"Ġ3":6802,"ĠmÃ¡ximo":6803,"Dile":6804,"ĠnÃ©ctar":6805,"Ġdisfrutaba":6806,"ĠserÃ¡n":6807,"Ġnadaban":6808,"VÃŃstete":6809,"DeberÃŃa":6810,"ĠsalÃŃa":6811,"Ġpeleen":6812,"Ġpasas":6813,"ĠCome":6814,"ÃŃmelo":6815,"Pien":6816,"Ġtic":6817,"Ġbuscan":6818,"Encontraron":6819,"toÃ±o":6820,"ĠmezclÃ³":6821,"Ġescuchado":6822,"Ġfavoritas":6823,"Ġbalancearse":6824,"rÃ¡elo":6825,"Lad":6826,"ĠbebÃŃa":6827,"Ġapagado":6828,"otes":6829,"uido":6830,"Ġencontraba":6831,"Be":6832,"ĠotoÃ±o":6833,"ĠvivÃŃamos":6834,"Ġestupido":6835,"Ġponerte":6836,"ĠpodrÃŃan":6837,"Ġaprobado":6838,"ĠdisfrutÃ³":6839,"ĠpracticÃ³":6840,"ĠSentÃŃa":6841,"Ġextraordinar":6842,"igotes":6843,"Cantaba":6844,"aras":6845,"ĠDoÃ±a":6846,"oradas":6847,"Ġpreferido":6848,"epito":6849,"upar":6850,"ĠentregÃ³":6851,"Ġtardes":6852,"Quack":6853,"Ġtenedor":6854,"Ġcamb":6855,"carse":6856,"ĠjugarÃŃan":6857,"ĠJue":6858,"Ġcoman":6859,"Ġllevo":6860,"Santa":6861,"Ġtraviesos":6862,"Ġhago":6863,"Ġzumba":6864,"ĠCaminaba":6865,"Ġinfantil":6866,"**.":6867,"OÃŃste":6868,"mbÃ³":6869,"Ġantiguas":6870,"Ġcai":6871,"ĠMientras":6872,"Siento":6873,"Bienvenido":6874,"Ġquitarle":6875,"Ġcenaron":6876,"Ġtemblar":6877,"Ġdong":6878,"Ġcerezas":6879,"ĠcaerÃ¡":6880,"ĠJuegan":6881,"An":6882,"Escucha":6883,"Ġcalaba":6884,"gale":6885,"Ġgracia":6886,"Recuerda":6887,"Ġprofunda":6888,"Ġronronea":6889,"Entra":6890,"ĠmaÃºlla":6891,"ĠHab":6892,"Ġmostrarle":6893,"Ġjugosas":6894,"Ġcansa":6895,"ĠDesde":6896,"Ġvolara":6897,"Ġorgullosos":6898,"SerÃŃa":6899,"ĠFuimos":6900,"Buscamos":6901,"ĠJugarÃŃan":6902,"how":6903,"Ġcuadra":6904,"Ġsaludar":6905,"Ġciu":6906,"Ġshow":6907,"Has":6908,"Ġcuidarse":6909,"Ġpeleado":6910,"Ġhablas":6911,"Ġatada":6912,"Ġinocentes":6913,"Ġcasera":6914,"ĠespaÃ±oles":6915,"much":6916,"ĠcalentÃ³":6917,"Ġcomieras":6918,"Ġcerraron":6919,"ĠenseÃ±arte":6920,"Ġtenerla":6921,"ĠmÃ¡xima":6922,"Cierra":6923,"ĠcalcetÃŃn":6924,"Ġgavio":6925,"ĠTus":6926,"Ġencontraremos":6927,"Ġestabas":6928,"Ġllamo":6929,"Ġciudad":6930,"Ġderra":6931,"uelas":6932,"Ġvestir":6933,"Ġserios":6934,"Ġchistos":6935,"Ġcarre":6936,"Ġllanto":6937,"bum":6938,"Ġmorena":6939,"Ġatrapaba":6940,"uesos":6941,"Ġbigotes":6942,"ĠllovÃŃa":6943,"Dales":6944,"estoy":6945,"Cl":6946,"Ãºme":6947,"ĠEstÃ¡s":6948,"Ġaprendiendo":6949,"Ġtruenos":6950,"DÃŃmelo":6951,"ĠhÃºme":6952,"ĠpaÃŃs":6953,"ĠpasarÃ¡":6954,"Ġpican":6955,"Ġforzado":6956,"ĠGracias":6957,"Ġcomeremos":6958,"Ġayudante":6959,"vemos":6960,"rack":6961,"Ġpreparando":6962,"Ġquedarme":6963,"Ġcomemos":6964,"ĠcabÃŃa":6965,"Ġvuelven":6966,"Mmmm":6967,"Miren":6968,"Ġpincel":6969,"Ġinformado":6970,"Ġpicote":6971,"Ġbajaba":6972,"Ġdejara":6973,"Ġpatada":6974,"ĠTomaron":6975,"Ġoruga":6976,"Ġcomimos":6977,"ĠCerrÃ³":6978,"ĠmoviÃ©ndose":6979,"Ġcuidarte":6980,"Ġhacemos":6981,"ĠacabÃ³":6982,"Ġizquierda":6983,"Ġpobres":6984,"ĠvistiÃ³":6985,"Ġarru":6986,"ĠtamaÃ±o":6987,"Ġabrazarlo":6988,"Ġsaliera":6989,"ĠSabÃŃan":6990,"Ġdesaparecer":6991,"Hazle":6992,"cayÃ³":6993,"bablemente":6994,"Ġrosado":6995,"SÃ¡calo":6996,"Ġapesta":6997,"inilla":6998,"Ġjarra":6999,"Ġdijera":7000,"Ġgasol":7001,"Ġpatita":7002,"Ġpuedas":7003,"ĠTenÃŃamos":7004,"carÃ©":7005,"ĠelevÃ³":7006,"ĠestarÃŃan":7007,"ĠDeci":7008,"ĠchocÃ³":7009,"Ġperdonado":7010,"Ġpropios":7011,"Ġpinturas":7012,"amÃ¡s":7013,"Ġcolumpi":7014,"Jugaremos":7015,"Ġaterra":7016,"ĠPueden":7017,"Ġextraordinario":7018,"Ġvainilla":7019,"Ã¡rate":7020,"Bienvenidos":7021,"Ġ*":7022,"ĠjamÃ¡s":7023,"ĠMuchas":7024,"Ġtenga":7025,"Ġclaros":7026,"Cal":7027,"Ġabiertos":7028,"Atra":7029,"Ġescondidos":7030,"Ġllam":7031,"ĠIba":7032,"Ġlocal":7033,"Ġcrecen":7034,"Ġsopla":7035,"Ġplantar":7036,"Ġcalentar":7037,"media":7038,"Ġinsectos":7039,"icÃ³":7040,"letas":7041,"Ġgraciosos":7042,"ĠmÃ¡quina":7043,"ĠexplotÃ³":7044,"Ġdomingos":7045,"ocupar":7046,"Ġpreocupar":7047,"ose":7048,"Quites":7049,"ĠMÃ¡s":7050,"Ġllevarme":7051,"sonÃ³":7052,"?!\"":7053,"Ġtoque":7054,"JuguÃ©":7055,"Dijo":7056,"Ġclavo":7057,"jera":7058,"Ġpoderosos":7059,"vÃ©s":7060,"ĠEmpujÃ³":7061,"Ġcuenco":7062,"estÃ¡":7063,"Ġmordisco":7064,"Tomamos":7065,"Ġconstruyendo":7066,"Ġasientos":7067,"Ġgordas":7068,"Ġcambian":7069,"Ġhonestos":7070,"Ġando":7071,"Ġayudaremos":7072,"Ġamorosa":7073,"Ġsilbido":7074,"Lla":7075,"Ġcaracoles":7076,"Disculpa":7077,"Ġseguido":7078,"ĠDejÃ³":7079,"ĠCara":7080,"cog":7081,"Re":7082,"Ġenga":7083,"Ġninguno":7084,"Ġdiscu":7085,"Ġhacerme":7086,"Ġbesar":7087,"ĠsoÃ±Ã©":7088,"Ġconocido":7089,"Algunos":7090,"Duermes":7091,"ĠenseÃ±arme":7092,"Ġgraves":7093,"ĠRecordÃ³":7094,"Apestas":7095,"Ġangel":7096,"Ġdejado":7097,"ĠtÃ©":7098,"Ġpositiva":7099,"Ġfijo":7100,"Ġposibles":7101,"ĠBobo":7102,"ĠOtro":7103,"ticos":7104,"zt":7105,"Ġturnaron":7106,"Dilo":7107,"Na":7108,"Ġcerrar":7109,"Ġgruesos":7110,"Ġgiraban":7111,"ĠvolverÃŃan":7112,"ĠsusurrÃ³":7113,"Ġdefinitiva":7114,"Ġcompro":7115,"LlÃ©valo":7116,"Ġhechas":7117,"Ġmiau":7118,"ĠsonrÃŃ":7119,"oyÃ³":7120,"Coc":7121,"Ġcrecieron":7122,"Tres":7123,"Ġunido":7124,"dades":7125,"Ġped":7126,"Ġcasado":7127,"ĠAlgo":7128,"Ã©gale":7129,"Ġsentarnos":7130,"Ġinvitar":7131,"ĠfuncionÃ³":7132,"Ġdeseado":7133,"gracias":7134,"Ġgrano":7135,"ĠagitÃ³":7136,"Ġaplauso":7137,"llo":7138,"Ġcolorido":7139,"ĠestudiÃ³":7140,"Ġcompartido":7141,"ĠcostarÃ¡":7142,"ComÃŃ":7143,"ĠJack":7144,"Ġdoradas":7145,"citaciones":7146,"Apaguen":7147,"Ton":7148,"Ġenfri":7149,"ĠSammy":7150,"odici":7151,"ĠLloraba":7152,"Ġcodici":7153,"Ġfuiste":7154,"ĠTirÃ³":7155,"Ġcreativa":7156,"Dormiste":7157,"Ġmejilla":7158,"Carro":7159,"Ġquitarse":7160,"ĠcaÃŃste":7161,"Ġcoloca":7162,"ĠPin":7163,"Ġsubiendo":7164,"Ġdelicadas":7165,"Ġcompartirla":7166,"ĠCre":7167,"Ġcambio":7168,"usieron":7169,"ĠPorque":7170,"Ġsecas":7171,"ĠcaÃŃda":7172,"Ġprimeras":7173,"Ġpuch":7174,"vieran":7175,"ĠvenÃŃan":7176,"Ġanz":7177,"Chirp":7178,"ĠmÃŃn":7179,"Ġdigo":7180,"Pongo":7181,"ĠjugarÃ©":7182,"ĠRegres":7183,"ĠextraÃ±Ã©":7184,"Ġusan":7185,"Ã±Ã©":7186,"Ġbocado":7187,"wee":7188,"Viste":7189,"Ġciertos":7190,"Ġprecisa":7191,"Ġcebollas":7192,"Ġfla":7193,"esto":7194,"MÃ¡talo":7195,"Ġanzuelo":7196,"Ġsentimiento":7197,"Ġpila":7198,"irÃ©":7199,"Ġsentarme":7200,"ĠautÃ©ntica":7201,"bados":7202,"Mucha":7203,"Vuelvo":7204,"ĠHoy":7205,"Ġfieles":7206,"ĠautÃ©ntico":7207,"rimos":7208,"Ġarbusto":7209,"Gri":7210,"Splash":7211,"Ġasustarse":7212,"Necesitaba":7213,"ĠEncontraron":7214,"Resp":7215,"ĠrevoloteÃ³":7216,"Abre":7217,"cab":7218,"Ġlanzaron":7219,"Ġgritos":7220,"Ġdelga":7221,"Ġagarra":7222,"taste":7223,"Ġllevarse":7224,"Hago":7225,"teaba":7226,"Ġsecretos":7227,"Ġmuestra":7228,"Ġdeslizaron":7229,"ĠLlevÃ³":7230,"weet":7231,"Pastel":7232,"encio":7233,"Yum":7234,"Ġcrez":7235,"Ġenvol":7236,"Ġaspe":7237,"Ġzumbido":7238,"Ġaspecto":7239,"ear":7240,"ĠcontarÃ©":7241,"Ġextraordinaria":7242,"Ġguan":7243,"Tuve":7244,"Pelusa":7245,"ĠAquÃŃ":7246,"ĠirÃŃa":7247,"Ġapretada":7248,"Ġesconderte":7249,"igiÃ³":7250,"Ġdelf":7251,"vala":7252,"lio":7253,"Ġnecesaria":7254,"Rex":7255,"Ġmasticaba":7256,"cionada":7257,"Ġenojara":7258,"Ġcoge":7259,"liote":7260,"Ġdecepcionada":7261,"Ġbibliote":7262,"Ġpiezas":7263,"Ġconocerlo":7264,"bimos":7265,"Ġdivirti":7266,"enta":7267,"robablemente":7268,"ĠrasguÃ±o":7269,"Ex":7270,"ĠmordÃŃa":7271,"Ra":7272,"Ġinmedia":7273,"Ġflotar":7274,"inamos":7275,"ĠNadÃ³":7276,"Ġgasta":7277,"Ġcortada":7278,"Ġanun":7279,"ĠganÃ©":7280,"ĠtosiÃ³":7281,"TrÃ¡elo":7282,"Bailaba":7283,"Ġcuidaron":7284,"lido":7285,"mara":7286,"ĠplantÃ³":7287,"Ġhaga":7288,"Ġcocos":7289,"ĠenseÃ±a":7290,"ĠTo":7291,"Traigo":7292,"ĠRose":7293,"AyudarÃ¡s":7294,"Pensamos":7295,"olaron":7296,"Hablas":7297,"Ġgritaban":7298,"PÃ©gale":7299,"Ġdiamantes":7300,"Ġsuperficial":7301,"astre":7302,"Ġtomes":7303,"Ġviol":7304,"Ġhablara":7305,"Ġmueven":7306,"Ġmaravillosa":7307,"Ġnevera":7308,"ĠMo":7309,"ĠImag":7310,"ĠderramÃ³":7311,"Ġblando":7312,"Ġcurar":7313,"aa":7314,"Ġrodeados":7315,"icales":7316,"Ġdesastre":7317,"Ġsabia":7318,"Ġpatearla":7319,"ĠLimp":7320,"ĠAmy":7321,"Aprendieron":7322,"Llegamos":7323,"Hueles":7324,"CuÃ¡n":7325,"Ġjoyas":7326,"ĠsalpicÃ³":7327,"Comieron":7328,"Ġconoce":7329,"Ġpreparados":7330,"Ġesconden":7331,"Ġacercarse":7332,"Ġapestaba":7333,"sus":7334,"Intenta":7335,"Habla":7336,"sab":7337,"Ġestupen":7338,"Ġcuidador":7339,"Encontramos":7340,"ĠPronto":7341,"Ġbaya":7342,"Ġhorne":7343,"Ġescribe":7344,"Ġescondes":7345,"ĠestarÃ¡s":7346,"Ġdet":7347,"Ġquita":7348,"Ġpeleando":7349,"Ġacci":7350,"ibles":7351,"rande":7352,"Ġhech":7353,"Ġfrita":7354,"ĠSonaba":7355,"Ġmolesta":7356,"Ġali":7357,"Ġbesaba":7358,"Ġtarro":7359,"ĠDio":7360,"ĠcuidarÃ¡":7361,"ĠdolÃŃan":7362,"ĠserÃ©":7363,"Ġconvertir":7364,"Ġmetas":7365,"Ġlina":7366,"Ġcerditos":7367,"Ġanuncio":7368,"Escri":7369,"Ġhicimos":7370,"ĠsonrÃŃen":7371,"Ġpelea":7372,"ĠCompraron":7373,"Ġsole":7374,"Ġcereza":7375,"Ġprobable":7376,"Ġreglas":7377,"Ġlucharon":7378,"Ġbienvenido":7379,"ĠEscuch":7380,"ĠladÃ³":7381,"Ġlucha":7382,"ĠextraÃ±aba":7383,"ĠimportÃ³":7384,"ĠpaÃ±o":7385,"ĠderritiÃ³":7386,"Ġrebana":7387,"Ġbanderas":7388,"Ġestropeada":7389,"Ġarreglarlas":7390,"Ġluci":7391,"Crack":7392,"Ġdejarlo":7393,"Ġguantes":7394,"ĠestarÃ¡n":7395,"ĠtravÃ©s":7396,"Ġatentos":7397,"Ġaverg":7398,"for":7399,"ĠeligiÃ³":7400,"cl":7401,"Hace":7402,"Ġgasolina":7403,"Shh":7404,"ĠdÃ³lar":7405,"Ġmetieron":7406,"egÃ³":7407,"Ġavergon":7408,"Ġcambia":7409,"Ġtomada":7410,"ĠOlvidÃ³":7411,"Ġcubierto":7412,"ĠMis":7413,"Compramos":7414,"Ġusarlo":7415,"ĠcargÃ³":7416,"ĠconducÃŃa":7417,"Ġcayera":7418,"Zzzzt":7419,"didos":7420,"Ġmerecido":7421,"ĠVa":7422,"adaron":7423,"Ġllegan":7424,"Ġsonaban":7425,"ĠvendÃŃa":7426,"divina":7427,"ĠdebÃŃan":7428,"ĠdormÃŃan":7429,"Ġescup":7430,"Ġtocas":7431,"Ġmaravillosos":7432,"ĠSoÃ±aba":7433,"fic":7434,"Lee":7435,"Ġentraba":7436,"Ġpinzas":7437,"Ġartista":7438,"Ġgusten":7439,"ĠsÃ¡bados":7440,"ĠViÃ³":7441,"Ġambas":7442,"Ġbuscamos":7443,"dremos":7444,"Unos":7445,"Ġalimentar":7446,"ate":7447,"Ã³mica":7448,"Ġhechizo":7449,"Ġescuelas":7450,"RodÃ³":7451,"ĠNecesitamos":7452,"ĠlatÃŃa":7453,"Ġhacerle":7454,"ĠladiÃ³":7455,"ĠflotÃ³":7456,"ĠescuchÃ©":7457,"Caba":7458,"cuen":7459,"ĠtÃºn":7460,"Ġoscuros":7461,"Hagamos":7462,"AyudÃ³":7463,"ĠUsÃ³":7464,"Ġpicaron":7465,"Ġexacto":7466,"Ġcomprara":7467,"Ġtraigo":7468,"solo":7469,"Ġbaratas":7470,"ĠRa":7471,"Ġcompleta":7472,"Ġruidosas":7473,"Ġsalida":7474,"ĠRe":7475,"Ġbam":7476,"Ġrodaron":7477,"Jaja":7478,"razÃ³n":7479,"ĠtraerÃŃa":7480,"OO":7481,"Ġbajos":7482,"Ġsalto":7483,"Ġprimeros":7484,"cidades":7485,"Ġlech":7486,"ĠAzul":7487,"ĠcompartÃŃan":7488,"ĠvolverÃ©":7489,"Ġcluck":7490,"ĠpÃ¡gina":7491,"Ġinteresantes":7492,"Ġcalabaza":7493,"ĠcomerÃŃa":7494,"Ġvuelva":7495,"ĠcaparazÃ³n":7496,"Cluck":7497,"Ġdivertirte":7498,"ĠVen":7499,"Ġmoviera":7500,"Ġjuguemos":7501,"Ġcantas":7502,"Felicitaciones":7503,"ĠestÃºpidas":7504,"Ġsalvar":7505,"Ġtazas":7506,"ĠAbuela":7507,"Ġglas":7508,"Vengan":7509,"Ġgranos":7510,"ĠvendrÃ¡":7511,"Ġpones":7512,"Felicidades":7513,"Ġgemela":7514,"Ġsigno":7515,"Ġgustara":7516,"Ġcelebrarlo":7517,"ĠSomos":7518,"ĠDecidiÃ³":7519,"Fuiste":7520,"ĠBilly":7521,"oche":7522,"Comeremos":7523,"Cas":7524,"Ġglaseado":7525,"Ġrecuer":7526,"Ġcrece":7527,"ĠJugarÃ³n":7528,"ĠsintiÃ©ndose":7529,"Ġbrillan":7530,"espera":7531,"Ġprincipales":7532,"Ġpatitos":7533,"Ġexactamente":7534,"Ġcomerme":7535,"Ġpersigue":7536,"Ġescucharlo":7537,"Ġgolpees":7538,"ĠNecesito":7539,"ĠtirÃ³n":7540,"Ġmolestar":7541,"ĠhÃºmeda":7542,"Ġbalancearon":7543,"Flores":7544,"Ġfemenino":7545,"Ġalejar":7546,"Ġpaja":7547,"Miauuu":7548,"Ġescrito":7549,"Ġdejas":7550,"Ġsubirme":7551,"tic":7552,"Ġatraparlos":7553,"Ġmadu":7554,"Ġaventuras":7555,"Ġarreglarla":7556,"Ġamamos":7557,"Ġpobrecita":7558,"ueba":7559,"ĠcurÃ³":7560,"Ġtri":7561,"BuscÃ³":7562,"Ã¡rselo":7563,"ComerÃ©":7564,"uelen":7565,"EstÃ¡bamos":7566,"EmpezÃ³":7567,"Ġsabemos":7568,"oom":7569,"Ġsonrisas":7570,"Ġacog":7571,"Ġtoquen":7572,"ĠGatito":7573,"este":7574,"Ġfemenina":7575,"ĠRodÃ³":7576,"Ġcodicioso":7577,"Ġarrastraba":7578,"ille":7579,"Cada":7580,"Ġlluvi":7581,"Ġsorprendieron":7582,"ĠpondrÃ¡s":7583,"ĠSueÃ±a":7584,"Ġescalar":7585,"op":7586,"Empu":7587,"Ġmaneras":7588,"Ġsediento":7589,"Ġflojo":7590,"Ġ1":7591,"ormes":7592,"jaba":7593,"Ġllevado":7594,"Ã©rna":7595,"Ġpracticaba":7596,"ĠbrincÃ³":7597,"Manz":7598,"ĠdejarÃŃa":7599,"Ġduermes":7600,"'!\"":7601,"Ġtromb":7602,"ĠluciÃ©rna":7603,"Ġofre":7604,"ĠpropÃ³":7605,"ĠpropÃ³sito":7606,"Truen":7607,"Ġtec":7608,"Ġusarlos":7609,"ĠBuscamos":7610,"Ġfuerzas":7611,"Ġcabras":7612,"Empezamos":7613,"Ġvendedor":7614,"Ġestan":7615,"Ġencuent":7616,"Ġescrita":7617,"Ġordenada":7618,"Ġcuidan":7619,"Ġsaltan":7620,"Ġpreciosos":7621,"Ġbienvenida":7622,"Ġcuidaban":7623,"enea":7624,"Ġdesapareci":7625,"ĠLana":7626,"Ġatraparlas":7627,"Ġafortuna":7628,"terÃŃa":7629,"rillaba":7630,"ĠPusieron":7631,"Ġmenores":7632,"ĠsandÃŃa":7633,"Ġviste":7634,"ĠenvolviÃ³":7635,"ĠprotegiÃ³":7636,"Ġaro":7637,"NiÃ±o":7638,"Ġsar":7639,"Ġtomarla":7640,"Ġabrigos":7641,"Osito":7642,"Ġchim":7643,"fo":7644,"Cara":7645,"terÃŃas":7646,"Ġpreocuparse":7647,"iki":7648,"Ġencendido":7649,"Ġsoltar":7650,"ĠabrÃŃa":7651,"Ġcogerlo":7652,"ĠmÃŃnimo":7653,"Ġlechuga":7654,"tazo":7655,"Ġcerdito":7656,"Ġchimenea":7657,"Ġcuidarlos":7658,"SaliÃ³":7659,"ĠagradeciÃ³":7660,"Ġveremos":7661,"Ġcogerla":7662,"Ã¼":7663,"encon":7664,"Ġmojadas":7665,"ĠMiau":7666,"ĠLee":7667,"Ġdocto":7668,"ĠenseÃ±arle":7669,"Ġdijiste":7670,"Ġabsoluta":7671,"Ġedi":7672,"ĠtrombÃ³n":7673,"Abra":7674,"Ġtocaras":7675,"tina":7676,"Juanita":7677,"Ġvieran":7678,"ker":7679,"Ġlocales":7680,"gÃ¼":7681,"Ġdibujando":7682,"Ġchula":7683,"eren":7684,"DoÃ±a":7685,"Ġdoler":7686,"Ġins":7687,"ĠLlovÃŃa":7688,"Ġhambrientos":7689,"Ġaguja":7690,"Ġsuje":7691,"Ġcuidara":7692,"ĠpondrÃ¡":7693,"Ġciegos":7694,"Ġmueca":7695,"Ġhuelen":7696,"maba":7697,"Ã©tete":7698,"zando":7699,"Ġtina":7700,"clo":7701,"Ġmaullido":7702,"ĠgruÃ±e":7703,"ll":7704,"ĠprotegerÃ©":7705,"ĠComÃŃa":7706,"Ġenormes":7707,"Ġsupiera":7708,"Ġlevantarla":7709,"ĠsartÃ©n":7710,"âĢĭâĢĭ":7711,"ĠâĢĭâĢĭ":7712,"ĠseÃ±alando":7713,"ĠEstos":7714,"ĠVeÃŃan":7715,"Ġsecarse":7716,"Quieren":7717,"Cuida":7718,"Ġcoma":7719,"Zoom":7720,"ugas":7721,"ĠcenÃ³":7722,"Ġmorderlo":7723,"Ġtraen":7724,"ĠoÃŃa":7725,"ĠtraerÃ©":7726,"ĠTraba":7727,"ĠDorm":7728,"ĠSintiÃ³":7729,"ĠespecÃŃfico":7730,"jamos":7731,"ondo":7732,"ese":7733,"Ġalguna":7734,"Ġtrabajan":7735,"Ġprobado":7736,"Ġdespertaron":7737,"ĠviviÃ³":7738,"Ġnieto":7739,"Ġmoderna":7740,"Ġperdonar":7741,"Ġlametazo":7742,"ĠcolgÃ³":7743,"ĠenseÃ±o":7744,"Ġcontentas":7745,"Ã±ar":7746,"Ġvivas":7747,"Ġquites":7748,"Ġdiscutieron":7749,"Busca":7750,"Limp":7751,"ĠBella":7752,"guÃŃa":7753,"ĠNavidades":7754,"ĠtÃºnel":7755,"quemos":7756,"Ġencontrara":7757,"Ġrugido":7758,"Volver":7759,"Juntas":7760,"Ġcub":7761,"oby":7762,"bÃŃa":7763,"Ġcavar":7764,"Ġsentarte":7765,"LlÃ©vala":7766,"Ġren":7767,"Ġfondo":7768,"Ġvete":7769,"ĠoÃŃrlo":7770,"SacarÃ©":7771,"iva":7772,"ĠasustÃ©":7773,"Ġcuidarlas":7774,"Ġuses":7775,"CuÃ¡l":7776,"Ġperten":7777,"Ġperse":7778,"Ġcuarta":7779,"rÃŃe":7780,"Ġpat":7781,"ĠKate":7782,"ĠverÃ¡s":7783,"Ġemocionados":7784,"ĠPintÃ³":7785,"Escon":7786,"tornu":7787,"gaba":7788,"Ġdescans":7789,"Ġgolosina":7790,"Juegan":7791,"Ġayudarlos":7792,"Ġayudarle":7793,"ĠrompÃŃ":7794,"Ġpodri":7795,"voy":7796,"Ġpedale":7797,"Ġdesaparecieron":7798,"ĠPapa":7799,"Ġcontarte":7800,"Ġpuchero":7801,"Ġrodeado":7802,"ĠayudÃ©":7803,"Necesita":7804,"ĠPodÃŃan":7805,"Ġlluvioso":7806,"ĠTweet":7807,"MÃ©tete":7808,"Sen":7809,"Ġsanos":7810,"Ġhas":7811,"ĠtenÃŃas":7812,"Ġdijimos":7813,"ĠSab":7814,"Ġponte":7815,"ĠJuguÃ©":7816,"Ġmental":7817,"ĠDuer":7818,"omp":7819,"Ġjugada":7820,"Ġsentaba":7821,"Ġfuncionar":7822,"ctor":7823,"pido":7824,"Ġvender":7825,"iezan":7826,"ĠNecesitaba":7827,"Ġcuidarla":7828,"Ġdivertirnos":7829,"Ġquiera":7830,"ĠEsas":7831,"Ġdeten":7832,"Ġpintaron":7833,"ĠÃºltimos":7834,"Ġflotador":7835,"Ġlimpiarlo":7836,"Ġsilencio":7837,"Ġresbalad":7838,"Ġingeniosa":7839,"Ġpude":7840,"ĠregresarÃŃa":7841,"Ġsino":7842,"Ġlastimada":7843,"querÃŃa":7844,"LlegÃ³":7845,"Ġteclas":7846,"gred":7847,"ine":7848,"Ġmoradas":7849,"Ġingred":7850,"Ġquack":7851,"uetes":7852,"Ġpasando":7853,"Ġllenaron":7854,"sal":7855,"Ġdetener":7856,"Gu":7857,"Jugaba":7858,"ĠobedeciÃ³":7859,"ubo":7860,"Pasaron":7861,"Ġpecho":7862,"Ġsentido":7863,"Ġamaron":7864,"Ġsacaron":7865,"Ġrespondieron":7866,"erÃŃan":7867,"Ġconge":7868,"Ġabsoluto":7869,"Pobrecita":7870,"Ġasustan":7871,"Ġcrujiente":7872,"ĠResp":7873,"Pobrecito":7874,"Ġdisfrazado":7875,"Ġasquerosas":7876,"ĠllevarÃŃa":7877,"Ġsubas":7878,"Ġcuadrado":7879,"Ġponerme":7880,"Ġquitarte":7881,"Ġbich":7882,"ĠatascÃ³":7883,"ÃŃna":7884,"Ġconoz":7885,"Ġtrabajaba":7886,"paÃ±a":7887,"ĠToma":7888,"Ġgrandiosa":7889,"Ġasiente":7890,"ĠgruÃ±Ã³n":7891,"tivas":7892,"Tantos":7893,"Hiciste":7894,"Ġsentamos":7895,"ĠNecesita":7896,"quiÃ©n":7897,"Ġprofundamente":7898,"Ġpuesta":7899,"Ġcargar":7900,"Ġavis":7901,"Ġcansadas":7902,"ĠenfriÃ³":7903,"ĠsubÃŃ":7904,"Ġinterior":7905,"zame":7906,"Ġpasadas":7907,"Ġenfermar":7908,"brir":7909,"ĠW":7910,"Ġcorte":7911,"Bebe":7912,"ĠdeseÃ³":7913,"Ġsalada":7914,"Ġprobarlo":7915,"iraba":7916,"Ġtomando":7917,"Ġlevantado":7918,"ĠImaginÃ³":7919,"Ġboste":7920,"ĠllevarÃ¡":7921,"Ġlimpiarla":7922,"quel":7923,"Woo":7924,"Ġsecos":7925,"Ġdeslizarse":7926,"Ġlamiendo":7927,"ĠpartiÃ³":7928,"Nuestra":7929,"Ġponiendo":7930,"rÃ¡zame":7931,"Ġsagrado":7932,"enial":7933,"Ġmet":7934,"Ġcintas":7935,"MÃŃrala":7936,"Ġinsis":7937,"Fi":7938,"Ġdices":7939,"ĠGritaron":7940,"TodavÃŃa":7941,"ĠpasarÃŃa":7942,"ĠofreciÃ³":7943,"eroÃŃna":7944,"Ġandan":7945,"Â¡\"":7946,"Ġbor":7947,"Ġtales":7948,"Ġgenerosa":7949,"Ġtrozos":7950,"tivos":7951,"Ġdejes":7952,"Ġacor":7953,"Ġcumpl":7954,"ĠComo":7955,"Mon":7956,"ĠpareciÃ³":7957,"Ġladrido":7958,"Ġllevaban":7959,"Ġquisieron":7960,"Tira":7961,"Ġmiro":7962,"Ã¡ndose":7963,"BR":7964,"Ġllevando":7965,"Ġafilado":7966,"Ġinvisibles":7967,"ĠcÃ³":7968,"yes":7969,"Ġmostraba":7970,"Ġcocodrilos":7971,"Ġinteligentes":7972,"Pat":7973,"Ġingredientes":7974,"Ġsanas":7975,"Ġdivertiste":7976,"Ġolfate":7977,"Lleva":7978,"ĠEstas":7979,"ĠbÃ¡sico":7980,"Ġfuncionaba":7981,"Ġmatar":7982,"ficio":7983,"Acab":7984,"Ġconstruye":7985,"Vemos":7986,"Encontraremos":7987,"Ġresbaladillas":7988,"Pi":7989,"Ġrapido":7990,"Ġsuficientemente":7991,"Ġaparecer":7992,"ĠBuzz":7993,"BOO":7994,"Ġencontrarlos":7995,"ky":7996,"caras":7997,"Ġedificio":7998,"Ġbocina":7999,"Ġinv":8000,"Pele":8001,"Haremos":8002,"Saltar":8003,"Ã¡ndolo":8004,"ĠAnda":8005,"ĠDebajo":8006,"PÃ¡rate":8007,"toc":8008,"Ġperdidas":8009,"his":8010,"ĠInten":8011,"Ġcocinaba":8012,"ĠsacarÃ©":8013,"Ġgaviota":8014,"Ġhacerlas":8015,"Ġromperse":8016,":**":8017,"Ro":8018,"mala":8019,"Ġladr":8020,"Ġsoleada":8021,"ly":8022,"Ġllevara":8023,"Ġvistazo":8024,"sela":8025,"Ġamargo":8026,"Ġinmediato":8027,"Genial":8028,"tente":8029,"Ġlavado":8030,"PodrÃ¡s":8031,"ĠÃ¡s":8032,"olpe":8033,"Ġcolorear":8034,"'\".":8035,"ĠOlÃŃa":8036,"Azul":8037,"Bar":8038,"Ġhacerles":8039,"dÃŃan":8040,"Pelig":8041,"Ġvea":8042,"Ġpintando":8043,"SoÃ±Ã©":8044,"SabrÃ¡s":8045,"Ġdisfruta":8046,"kers":8047,"Ġactivo":8048,"Ġesperamos":8049,"Otros":8050,"laus":8051,"ignifica":8052,"Ġpesca":8053,"Nues":8054,"Ġllegara":8055,"romp":8056,"Ġcalma":8057,"ĠDecÃŃa":8058,"Imag":8059,"th":8060,"ĠalcanzÃ³":8061,"ĠĠĠĊ":8062,"Ġayer":8063,"Ġsirenas":8064,"hes":8065,"ĠolvidÃ©":8066,"Ġtoco":8067,"Ġbiblioteca":8068,"duvo":8069,"Ġalivi":8070,"Ġadhes":8071,"ĠatraparÃ©":8072,"Ġquemaba":8073,"ĠSmi":8074,"Ġatrapes":8075,"ĠSmith":8076,"ĠguiÃ±o":8077,"Ġmereces":8078,"Ġadhesiva":8079,"ĠDame":8080,"Ã©v":8081,"GruÃ±":8082,"ops":8083,"Ġcomete":8084,"Ġtrajeron":8085,"Ġleerlo":8086,"hiskers":8087,"ĠHabÃŃan":8088,"Ġcuidarme":8089,"Ġpesar":8090,"Sopla":8091,"ĠcuÃ¡ndo":8092,"Ġestanque":8093,"Oink":8094,"Ġquedarnos":8095,"ĠvÃŃas":8096,"Ġcepillo":8097,"Ġcuidas":8098,"Ġnecesar":8099,"Apaga":8100,"Ġescap":8101,"Ġcarretera":8102,"Ġenre":8103,"Vuelvas":8104,"Ġpeores":8105,"Bal":8106,"Tic":8107,"Ġjueguen":8108,"Ġsaludos":8109,"Ġpuedan":8110,"Ġmalvada":8111,"Juegas":8112,"Encontraste":8113,"leÃ³":8114,"Ġasustarte":8115,"EsperÃ³":8116,"ĠHici":8117,"ĠvendrÃŃa":8118,"ĠapilÃ³":8119,"Ġganaste":8120,"Ġdamos":8121,"Ġpelean":8122,"sabes":8123,"Ġavergonzado":8124,"Ġrespuesta":8125,"Ġrugir":8126,"Busco":8127,"Terminas":8128,"Pe":8129,"Ġusarlas":8130,"ĠheroÃŃna":8131,"tenemos":8132,"ĠBajÃ³":8133,"gh":8134,"Ġcerc":8135,"Ġtamba":8136,"Papa":8137,"Pagamos":8138,"didas":8139,"ĠdormÃŃ":8140,"Llevamos":8141,"Ġcalien":8142,"Ġaterrador":8143,"cÃŃfica":8144,"Ġpoderosas":8145,"Ġutiliz":8146,"Pes":8147,"Abe":8148,"Mar":8149,"Ġgustos":8150,"edora":8151,"pade":8152,"Ġempujarlo":8153,"ĠdÃ©jame":8154,"ĠdeberÃŃan":8155,"Ġizquierdo":8156,"Ġalcanzarlos":8157,"Ġmuevas":8158,"Ġsacaste":8159,"Ġdespertarse":8160,"Aunque":8161,"Toquen":8162,"Ġparche":8163,"Ġrami":8164,"Ġesperas":8165,"TerminÃ©":8166,"ĠartÃŃstica":8167,"Ġpuntiagudo":8168,"Ġlastima":8169,"ĠinsistiÃ³":8170,"rÃ³col":8171,"Ġparpade":8172,"Ġterminas":8173,"ĠlloviÃ³":8174,"raste":8175,"Ġgorilas":8176,"Ġmarcas":8177,"ĠregÃ³":8178,"ĠmuÃ±ecos":8179,"Ġequipo":8180,"Quedate":8181,"ĠcrecÃŃan":8182,"cui":8183,"Ġponerle":8184,"Ġchiqui":8185,"Ġmiraban":8186,"Ġexplicar":8187,"ĠbrÃ³col":8188,"Ġmir":8189,"Serp":8190,"Ġaprenden":8191}